{
  "version": "1.0",
  "truncation": null,
  "padding": null,
  "added_tokens": [
    {
      "id": 0,
      "content": "[PAD]",
      "single_word": false,
      "lstrip": false,
      "rstrip": false,
      "normalized": false,
      "special": true
    },
    {
      "id": 1,
      "content": "[UNK]",
      "single_word": false,
      "lstrip": false,
      "rstrip": false,
      "normalized": false,
      "special": true
    },
    {
      "id": 2,
      "content": "[CLS]",
      "single_word": false,
      "lstrip": false,
      "rstrip": false,
      "normalized": false,
      "special": true
    },
    {
      "id": 3,
      "content": "[SEP]",
      "single_word": false,
      "lstrip": false,
      "rstrip": false,
      "normalized": false,
      "special": true
    },
    {
      "id": 4,
      "content": "[MASK]",
      "single_word": false,
      "lstrip": false,
      "rstrip": false,
      "normalized": false,
      "special": true
    }
  ],
  "normalizer": {
    "type": "Sequence",
    "normalizers": [
      {
        "type": "NFD"
      },
      {
        "type": "Lowercase"
      },
      {
        "type": "StripAccents"
      }
    ]
  },
  "pre_tokenizer": {
    "type": "BertPreTokenizer"
  },
  "post_processor": {
    "type": "TemplateProcessing",
    "single": [
      {
        "SpecialToken": {
          "id": "[CLS]",
          "type_id": 0
        }
      },
      {
        "Sequence": {
          "id": "A",
          "type_id": 0
        }
      },
      {
        "SpecialToken": {
          "id": "[SEP]",
          "type_id": 0
        }
      }
    ],
    "pair": [
      {
        "SpecialToken": {
          "id": "[CLS]",
          "type_id": 0
        }
      },
      {
        "Sequence": {
          "id": "A",
          "type_id": 0
        }
      },
      {
        "SpecialToken": {
          "id": "[SEP]",
          "type_id": 0
        }
      },
      {
        "Sequence": {
          "id": "B",
          "type_id": 0
        }
      },
      {
        "SpecialToken": {
          "id": "[SEP]",
          "type_id": 0
        }
      }
    ],
    "special_tokens": {
      "[CLS]": {
        "id": "[CLS]",
        "ids": [
          2
        ],
        "tokens": [
          "[CLS]"
        ]
      },
      "[SEP]": {
        "id": "[SEP]",
        "ids": [
          3
        ],
        "tokens": [
          "[SEP]"
        ]
      }
    }
  },
  "decoder": null,
  "model": {
    "type": "WordPiece",
    "unk_token": "[UNK]",
    "continuing_subword_prefix": "##",
    "max_input_chars_per_word": 100,
    "vocab": {
      "[PAD]": 0,
      "[UNK]": 1,
      "[CLS]": 2,
      "[SEP]": 3,
      "[MASK]": 4,
      "!": 5,
      "\"": 6,
      "#": 7,
      "$": 8,
      "%": 9,
      "&": 10,
      "'": 11,
      "(": 12,
      ")": 13,
      "*": 14,
      "+": 15,
      ",": 16,
      "-": 17,
      ".": 18,
      "/": 19,
      "0": 20,
      "1": 21,
      "2": 22,
      "3": 23,
      "4": 24,
      "5": 25,
      "6": 26,
      "7": 27,
      "8": 28,
      "9": 29,
      ":": 30,
      ";": 31,
      "<": 32,
      "=": 33,
      ">": 34,
      "?": 35,
      "@": 36,
      "[": 37,
      "\\": 38,
      "]": 39,
      "^": 40,
      "_": 41,
      "`": 42,
      "a": 43,
      "b": 44,
      "c": 45,
      "d": 46,
      "e": 47,
      "f": 48,
      "g": 49,
      "h": 50,
      "i": 51,
      "j": 52,
      "k": 53,
      "l": 54,
      "m": 55,
      "n": 56,
      "o": 57,
      "p": 58,
      "q": 59,
      "r": 60,
      "s": 61,
      "t": 62,
      "u": 63,
      "v": 64,
      "w": 65,
      "x": 66,
      "y": 67,
      "z": 68,
      "{": 69,
      "|": 70,
      "}": 71,
      "~": 72,
      "¡": 73,
      "¢": 74,
      "£": 75,
      "¥": 76,
      "§": 77,
      "¨": 78,
      "¯": 79,
      "°": 80,
      "±": 81,
      "²": 82,
      "´": 83,
      "µ": 84,
      "¶": 85,
      "·": 86,
      "¸": 87,
      "»": 88,
      "¼": 89,
      "½": 90,
      "¿": 91,
      "×": 92,
      "ß": 93,
      "æ": 94,
      "ð": 95,
      "÷": 96,
      "ø": 97,
      "þ": 98,
      "đ": 99,
      "ħ": 100,
      "ı": 101,
      "ł": 102,
      "ŋ": 103,
      "œ": 104,
      "ƿ": 105,
      "ǀ": 106,
      "ǁ": 107,
      "ǂ": 108,
      "ǃ": 109,
      "ǥ": 110,
      "ɐ": 111,
      "ɑ": 112,
      "ɒ": 113,
      "ɔ": 114,
      "ɕ": 115,
      "ɖ": 116,
      "ə": 117,
      "ɛ": 118,
      "ɜ": 119,
      "ɡ": 120,
      "ɢ": 121,
      "ɣ": 122,
      "ɤ": 123,
      "ɥ": 124,
      "ɦ": 125,
      "ɨ": 126,
      "ɪ": 127,
      "ɫ": 128,
      "ɭ": 129,
      "ɯ": 130,
      "ɳ": 131,
      "ɵ": 132,
      "ɸ": 133,
      "ɹ": 134,
      "ɾ": 135,
      "ʀ": 136,
      "ʁ": 137,
      "ʂ": 138,
      "ʃ": 139,
      "ʈ": 140,
      "ʊ": 141,
      "ʌ": 142,
      "ʎ": 143,
      "ʏ": 144,
      "ʒ": 145,
      "ʔ": 146,
      "ʕ": 147,
      "ʘ": 148,
      "ʰ": 149,
      "ʱ": 150,
      "ʲ": 151,
      "ʷ": 152,
      "ʻ": 153,
      "ʼ": 154,
      "ʾ": 155,
      "ʿ": 156,
      "ˀ": 157,
      "ˆ": 158,
      "ˇ": 159,
      "ˈ": 160,
      "ˌ": 161,
      "ː": 162,
      "ˑ": 163,
      "˚": 164,
      "˜": 165,
      "˝": 166,
      "ˤ": 167,
      "˥": 168,
      "˧": 169,
      "˨": 170,
      "˩": 171,
      "˭": 172,
      "α": 173,
      "β": 174,
      "γ": 175,
      "δ": 176,
      "ε": 177,
      "ζ": 178,
      "η": 179,
      "θ": 180,
      "ι": 181,
      "κ": 182,
      "λ": 183,
      "μ": 184,
      "ν": 185,
      "ξ": 186,
      "ο": 187,
      "π": 188,
      "ρ": 189,
      "ς": 190,
      "σ": 191,
      "τ": 192,
      "υ": 193,
      "φ": 194,
      "χ": 195,
      "ψ": 196,
      "ω": 197,
      "а": 198,
      "б": 199,
      "в": 200,
      "г": 201,
      "д": 202,
      "е": 203,
      "ж": 204,
      "з": 205,
      "и": 206,
      "к": 207,
      "л": 208,
      "м": 209,
      "н": 210,
      "о": 211,
      "п": 212,
      "р": 213,
      "с": 214,
      "т": 215,
      "у": 216,
      "ф": 217,
      "х": 218,
      "ц": 219,
      "ч": 220,
      "ш": 221,
      "щ": 222,
      "ъ": 223,
      "ы": 224,
      "ь": 225,
      "э": 226,
      "ю": 227,
      "я": 228,
      "є": 229,
      "і": 230,
      "ј": 231,
      "ѣ": 232,
      "ѧ": 233,
      "ѩ": 234,
      "ѫ": 235,
      "ѭ": 236,
      "ѳ": 237,
      "ѵ": 238,
      "ҳ": 239,
      "ҷ": 240,
      "ա": 241,
      "բ": 242,
      "ի": 243,
      "լ": 244,
      "կ": 245,
      "հ": 246,
      "յ": 247,
      "ն": 248,
      "պ": 249,
      "ս": 250,
      "տ": 251,
      "ր": 252,
      "ց": 253,
      "א": 254,
      "ב": 255,
      "ג": 256,
      "ד": 257,
      "ה": 258,
      "ו": 259,
      "ז": 260,
      "ח": 261,
      "ט": 262,
      "י": 263,
      "ך": 264,
      "ל": 265,
      "ם": 266,
      "מ": 267,
      "ן": 268,
      "נ": 269,
      "ס": 270,
      "ע": 271,
      "פ": 272,
      "ץ": 273,
      "צ": 274,
      "ק": 275,
      "ר": 276,
      "ש": 277,
      "ת": 278,
      "ײ": 279,
      "ء": 280,
      "ا": 281,
      "ب": 282,
      "ة": 283,
      "ت": 284,
      "ث": 285,
      "ج": 286,
      "ح": 287,
      "خ": 288,
      "د": 289,
      "ذ": 290,
      "ر": 291,
      "س": 292,
      "ش": 293,
      "ص": 294,
      "ض": 295,
      "ظ": 296,
      "ع": 297,
      "ـ": 298,
      "ف": 299,
      "ق": 300,
      "ك": 301,
      "ل": 302,
      "م": 303,
      "ن": 304,
      "ه": 305,
      "و": 306,
      "ى": 307,
      "ي": 308,
      "پ": 309,
      "گ": 310,
      "ی": 311,
      "ܐ": 312,
      "ܝ": 313,
      "ܢ": 314,
      "ܩ": 315,
      "ܪ": 316,
      "आ": 317,
      "ई": 318,
      "क": 319,
      "ख": 320,
      "ग": 321,
      "ठ": 322,
      "ड": 323,
      "ण": 324,
      "त": 325,
      "द": 326,
      "ध": 327,
      "न": 328,
      "प": 329,
      "ब": 330,
      "म": 331,
      "य": 332,
      "र": 333,
      "ष": 334,
      "स": 335,
      "জ": 336,
      "প": 337,
      "ম": 338,
      "য": 339,
      "র": 340,
      "ল": 341,
      "স": 342,
      "ಕ": 343,
      "ಚ": 344,
      "ಜ": 345,
      "ಪ": 346,
      "ಮ": 347,
      "ಯ": 348,
      "ರ": 349,
      "ಲ": 350,
      "ಶ": 351,
      "ಸ": 352,
      "ข": 353,
      "ง": 354,
      "ด": 355,
      "น": 356,
      "ม": 357,
      "ย": 358,
      "ร": 359,
      "ล": 360,
      "ว": 361,
      "ศ": 362,
      "ส": 363,
      "อ": 364,
      "า": 365,
      "เ": 366,
      "แ": 367,
      "โ": 368,
      "ใ": 369,
      "ไ": 370,
      "་": 371,
      "ད": 372,
      "བ": 373,
      "န": 374,
      "သ": 375,
      "ᄀ": 376,
      "ᄂ": 377,
      "ᄃ": 378,
      "ᄅ": 379,
      "ᄆ": 380,
      "ᄇ": 381,
      "ᄉ": 382,
      "ᄋ": 383,
      "ᄌ": 384,
      "ᄏ": 385,
      "ᄐ": 386,
      "ᄑ": 387,
      "ᄒ": 388,
      "ᅡ": 389,
      "ᅢ": 390,
      "ᅥ": 391,
      "ᅧ": 392,
      "ᅨ": 393,
      "ᅩ": 394,
      "ᅬ": 395,
      "ᅭ": 396,
      "ᅮ": 397,
      "ᅲ": 398,
      "ᅳ": 399,
      "ᅵ": 400,
      "ᆨ": 401,
      "ᆫ": 402,
      "ᆯ": 403,
      "ᆷ": 404,
      "ᆸ": 405,
      "ᆼ": 406,
      "ሂ": 407,
      "ላ": 408,
      "ሪ": 409,
      "ሻ": 410,
      "ቡ": 411,
      "ታ": 412,
      "ን": 413,
      "ᏹ": 414,
      "ᵻ": 415,
      "ᶢ": 416,
      "​": 417,
      "‌": 418,
      "‍": 419,
      "‎": 420,
      "‑": 421,
      "–": 422,
      "—": 423,
      "‘": 424,
      "’": 425,
      "‚": 426,
      "“": 427,
      "”": 428,
      "•": 429,
      "…": 430,
      "′": 431,
      "″": 432,
      "›": 433,
      "⁄": 434,
      "⁊": 435,
      "₂": 436,
      "₤": 437,
      "₥": 438,
      "€": 439,
      "₯": 440,
      "₹": 441,
      "№": 442,
      "ℛ": 443,
      "⅓": 444,
      "←": 445,
      "↑": 446,
      "→": 447,
      "⇒": 448,
      "∀": 449,
      "∂": 450,
      "∃": 451,
      "∅": 452,
      "∇": 453,
      "∈": 454,
      "−": 455,
      "∖": 456,
      "∗": 457,
      "√": 458,
      "∝": 459,
      "∞": 460,
      "∧": 461,
      "≈": 462,
      "≡": 463,
      "≤": 464,
      "≥": 465,
      "⋅": 466,
      "◌": 467,
      "◦": 468,
      "♆": 469,
      "♠": 470,
      "♯": 471,
      "❤": 472,
      "⟨": 473,
      "⟩": 474,
      "⨉": 475,
      "ⲏ": 476,
      "ⲓ": 477,
      "ⲙ": 478,
      "ⲭ": 479,
      "。": 480,
      "《": 481,
      "》": 482,
      "〜": 483,
      "い": 484,
      "さ": 485,
      "た": 486,
      "つ": 487,
      "て": 488,
      "の": 489,
      "は": 490,
      "ひ": 491,
      "ふ": 492,
      "む": 493,
      "ら": 494,
      "り": 495,
      "る": 496,
      "ろ": 497,
      "ァ": 498,
      "イ": 499,
      "カ": 500,
      "キ": 501,
      "ク": 502,
      "コ": 503,
      "シ": 504,
      "ス": 505,
      "セ": 506,
      "タ": 507,
      "チ": 508,
      "ッ": 509,
      "テ": 510,
      "ト": 511,
      "ハ": 512,
      "ヒ": 513,
      "フ": 514,
      "マ": 515,
      "ミ": 516,
      "メ": 517,
      "モ": 518,
      "ャ": 519,
      "ュ": 520,
      "ラ": 521,
      "リ": 522,
      "ル": 523,
      "レ": 524,
      "ロ": 525,
      "ワ": 526,
      "ン": 527,
      "ー": 528,
      "㓾": 529,
      "一": 530,
      "丁": 531,
      "七": 532,
      "万": 533,
      "三": 534,
      "上": 535,
      "下": 536,
      "不": 537,
      "业": 538,
      "东": 539,
      "中": 540,
      "丹": 541,
      "为": 542,
      "主": 543,
      "义": 544,
      "之": 545,
      "书": 546,
      "了": 547,
      "争": 548,
      "事": 549,
      "二": 550,
      "云": 551,
      "五": 552,
      "亜": 553,
      "产": 554,
      "京": 555,
      "人": 556,
      "今": 557,
      "介": 558,
      "仔": 559,
      "仕": 560,
      "他": 561,
      "代": 562,
      "仪": 563,
      "们": 564,
      "伐": 565,
      "会": 566,
      "伝": 567,
      "伯": 568,
      "佐": 569,
      "体": 570,
      "何": 571,
      "佬": 572,
      "來": 573,
      "侍": 574,
      "俄": 575,
      "信": 576,
      "候": 577,
      "像": 578,
      "元": 579,
      "先": 580,
      "光": 581,
      "克": 582,
      "免": 583,
      "入": 584,
      "八": 585,
      "公": 586,
      "兵": 587,
      "典": 588,
      "决": 589,
      "冶": 590,
      "准": 591,
      "凹": 592,
      "分": 593,
      "切": 594,
      "刘": 595,
      "利": 596,
      "制": 597,
      "前": 598,
      "剎": 599,
      "剑": 600,
      "劇": 601,
      "劉": 602,
      "力": 603,
      "动": 604,
      "包": 605,
      "北": 606,
      "匠": 607,
      "区": 608,
      "十": 609,
      "千": 610,
      "卅": 611,
      "卌": 612,
      "南": 613,
      "博": 614,
      "卫": 615,
      "印": 616,
      "厘": 617,
      "又": 618,
      "及": 619,
      "双": 620,
      "发": 621,
      "受": 622,
      "叠": 623,
      "口": 624,
      "古": 625,
      "只": 626,
      "可": 627,
      "号": 628,
      "司": 629,
      "各": 630,
      "合": 631,
      "吉": 632,
      "后": 633,
      "吐": 634,
      "呣": 635,
      "呷": 636,
      "咊": 637,
      "和": 638,
      "唐": 639,
      "唔": 640,
      "問": 641,
      "喜": 642,
      "囍": 643,
      "四": 644,
      "団": 645,
      "国": 646,
      "图": 647,
      "國": 648,
      "圕": 649,
      "圖": 650,
      "土": 651,
      "在": 652,
      "地": 653,
      "块": 654,
      "坤": 655,
      "坪": 656,
      "城": 657,
      "域": 658,
      "埠": 659,
      "基": 660,
      "堂": 661,
      "塊": 662,
      "境": 663,
      "士": 664,
      "変": 665,
      "复": 666,
      "外": 667,
      "大": 668,
      "天": 669,
      "夷": 670,
      "奉": 671,
      "奐": 672,
      "女": 673,
      "奴": 674,
      "她": 675,
      "妹": 676,
      "姚": 677,
      "婎": 678,
      "媠": 679,
      "子": 680,
      "字": 681,
      "学": 682,
      "宁": 683,
      "它": 684,
      "宇": 685,
      "守": 686,
      "安": 687,
      "宗": 688,
      "家": 689,
      "寧": 690,
      "審": 691,
      "对": 692,
      "导": 693,
      "将": 694,
      "尉": 695,
      "導": 696,
      "小": 697,
      "层": 698,
      "島": 699,
      "川": 700,
      "州": 701,
      "巡": 702,
      "工": 703,
      "巴": 704,
      "市": 705,
      "布": 706,
      "帝": 707,
      "帥": 708,
      "師": 709,
      "常": 710,
      "平": 711,
      "年": 712,
      "庁": 713,
      "庆": 714,
      "库": 715,
      "府": 716,
      "庫": 717,
      "康": 718,
      "廚": 719,
      "廷": 720,
      "建": 721,
      "廿": 722,
      "开": 723,
      "弘": 724,
      "張": 725,
      "当": 726,
      "征": 727,
      "後": 728,
      "徒": 729,
      "御": 730,
      "微": 731,
      "忒": 732,
      "思": 733,
      "总": 734,
      "恢": 735,
      "息": 736,
      "惡": 737,
      "惰": 738,
      "愛": 739,
      "憂": 740,
      "懸": 741,
      "成": 742,
      "战": 743,
      "戦": 744,
      "戰": 745,
      "手": 746,
      "才": 747,
      "批": 748,
      "技": 749,
      "把": 750,
      "抗": 751,
      "折": 752,
      "拉": 753,
      "拿": 754,
      "按": 755,
      "挑": 756,
      "捐": 757,
      "捨": 758,
      "探": 759,
      "推": 760,
      "提": 761,
      "援": 762,
      "撫": 763,
      "支": 764,
      "政": 765,
      "教": 766,
      "文": 767,
      "斗": 768,
      "斬": 769,
      "斯": 770,
      "新": 771,
      "方": 772,
      "於": 773,
      "族": 774,
      "日": 775,
      "旧": 776,
      "昇": 777,
      "明": 778,
      "星": 779,
      "是": 780,
      "時": 781,
      "普": 782,
      "曲": 783,
      "書": 784,
      "曹": 785,
      "替": 786,
      "最": 787,
      "月": 788,
      "有": 789,
      "朝": 790,
      "木": 791,
      "术": 792,
      "朱": 793,
      "李": 794,
      "杜": 795,
      "来": 796,
      "杭": 797,
      "東": 798,
      "杷": 799,
      "松": 800,
      "枇": 801,
      "林": 802,
      "校": 803,
      "核": 804,
      "案": 805,
      "桓": 806,
      "楊": 807,
      "業": 808,
      "槐": 809,
      "様": 810,
      "樂": 811,
      "標": 812,
      "檀": 813,
      "次": 814,
      "款": 815,
      "歌": 816,
      "武": 817,
      "毋": 818,
      "比": 819,
      "民": 820,
      "水": 821,
      "氵": 822,
      "汉": 823,
      "江": 824,
      "汶": 825,
      "沐": 826,
      "沖": 827,
      "河": 828,
      "泉": 829,
      "法": 830,
      "泥": 831,
      "洞": 832,
      "洲": 833,
      "流": 834,
      "济": 835,
      "浙": 836,
      "浦": 837,
      "海": 838,
      "淨": 839,
      "淮": 840,
      "清": 841,
      "済": 842,
      "渣": 843,
      "渤": 844,
      "湖": 845,
      "準": 846,
      "滑": 847,
      "漢": 848,
      "漳": 849,
      "潮": 850,
      "澄": 851,
      "火": 852,
      "灾": 853,
      "炉": 854,
      "烏": 855,
      "爭": 856,
      "爱": 857,
      "父": 858,
      "片": 859,
      "牠": 860,
      "特": 861,
      "献": 862,
      "獻": 863,
      "王": 864,
      "现": 865,
      "珊": 866,
      "理": 867,
      "琵": 868,
      "琶": 869,
      "瑚": 870,
      "瓦": 871,
      "瓩": 872,
      "用": 873,
      "甫": 874,
      "田": 875,
      "番": 876,
      "異": 877,
      "白": 878,
      "百": 879,
      "的": 880,
      "皆": 881,
      "皇": 882,
      "盛": 883,
      "督": 884,
      "知": 885,
      "石": 886,
      "礻": 887,
      "社": 888,
      "祂": 889,
      "祐": 890,
      "神": 891,
      "禅": 892,
      "福": 893,
      "秀": 894,
      "秣": 895,
      "程": 896,
      "空": 897,
      "竜": 898,
      "章": 899,
      "竹": 900,
      "第": 901,
      "節": 902,
      "篆": 903,
      "籲": 904,
      "米": 905,
      "粁": 906,
      "糎": 907,
      "系": 908,
      "約": 909,
      "紅": 910,
      "紐": 911,
      "索": 912,
      "紫": 913,
      "紹": 914,
      "統": 915,
      "綠": 916,
      "維": 917,
      "総": 918,
      "緑": 919,
      "緣": 920,
      "緩": 921,
      "縣": 922,
      "總": 923,
      "織": 924,
      "红": 925,
      "绍": 926,
      "经": 927,
      "统": 928,
      "维": 929,
      "美": 930,
      "義": 931,
      "羽": 932,
      "習": 933,
      "考": 934,
      "耶": 935,
      "耿": 936,
      "肉": 937,
      "胡": 938,
      "腐": 939,
      "腹": 940,
      "膺": 941,
      "臣": 942,
      "臨": 943,
      "興": 944,
      "舍": 945,
      "航": 946,
      "船": 947,
      "良": 948,
      "节": 949,
      "苏": 950,
      "苗": 951,
      "英": 952,
      "草": 953,
      "菩": 954,
      "華": 955,
      "萨": 956,
      "蒲": 957,
      "蕃": 958,
      "薩": 959,
      "藍": 960,
      "藏": 961,
      "藩": 962,
      "虫": 963,
      "蜀": 964,
      "蝴": 965,
      "蝶": 966,
      "衛": 967,
      "表": 968,
      "西": 969,
      "覆": 970,
      "見": 971,
      "親": 972,
      "言": 973,
      "詞": 974,
      "試": 975,
      "話": 976,
      "語": 977,
      "説": 978,
      "議": 979,
      "讀": 980,
      "让": 981,
      "议": 982,
      "试": 983,
      "话": 984,
      "语": 985,
      "豆": 986,
      "豊": 987,
      "豔": 988,
      "赛": 989,
      "起": 990,
      "越": 991,
      "趙": 992,
      "軍": 993,
      "过": 994,
      "进": 995,
      "通": 996,
      "逸": 997,
      "過": 998,
      "道": 999,
      "邑": 1000,
      "那": 1001,
      "郎": 1002,
      "部": 1003,
      "都": 1004,
      "鄴": 1005,
      "釁": 1006,
      "重": 1007,
      "金": 1008,
      "針": 1009,
      "銖": 1010,
      "鋪": 1011,
      "铺": 1012,
      "長": 1013,
      "长": 1014,
      "門": 1015,
      "閏": 1016,
      "閩": 1017,
      "门": 1018,
      "问": 1019,
      "间": 1020,
      "闽": 1021,
      "陋": 1022,
      "院": 1023,
      "陳": 1024,
      "陵": 1025,
      "陽": 1026,
      "隶": 1027,
      "隸": 1028,
      "集": 1029,
      "雍": 1030,
      "雙": 1031,
      "雨": 1032,
      "雲": 1033,
      "震": 1034,
      "青": 1035,
      "韓": 1036,
      "韩": 1037,
      "音": 1038,
      "頓": 1039,
      "題": 1040,
      "顯": 1041,
      "项": 1042,
      "顿": 1043,
      "题": 1044,
      "风": 1045,
      "食": 1046,
      "館": 1047,
      "騷": 1048,
      "驗": 1049,
      "验": 1050,
      "體": 1051,
      "高": 1052,
      "鬱": 1053,
      "魂": 1054,
      "魄": 1055,
      "魏": 1056,
      "鮮": 1057,
      "鱻": 1058,
      "鲁": 1059,
      "鲜": 1060,
      "齉": 1061,
      "龍": 1062,
      "龘": 1063,
      "龢": 1064,
      "ꀕ": 1065,
      "ꜣ": 1066,
      "ꭰ": 1067,
      "ꭳ": 1068,
      "ꭶ": 1069,
      "ꭸ": 1070,
      "ꭹ": 1071,
      "ꮀ": 1072,
      "ꮃ": 1073,
      "ꮉ": 1074,
      "ꮎ": 1075,
      "ꮝ": 1076,
      "ꮟ": 1077,
      "ꮤ": 1078,
      "ꮿ": 1079,
      "ﬁ": 1080,
      "ﬂ": 1081,
      "︘": 1082,
      "﻿": 1083,
      "，": 1084,
      "～": 1085,
      "�": 1086,
      "𐀊": 1087,
      "𐀍": 1088,
      "𐀚": 1089,
      "𐀞": 1090,
      "𒂵": 1091,
      "𒄑": 1092,
      "𒆳": 1093,
      "𒈪": 1094,
      "𒊒": 1095,
      "𒊕": 1096,
      "𒌦": 1097,
      "𠔻": 1098,
      "𪚥": 1099,
      "𪜶": 1100,
      "##e": 1101,
      "##n": 1102,
      "##t": 1103,
      "##a": 1104,
      "##l": 1105,
      "##s": 1106,
      "##o": 1107,
      "##u": 1108,
      "##d": 1109,
      "##r": 1110,
      "##m": 1111,
      "##i": 1112,
      "##c": 1113,
      "##h": 1114,
      "##g": 1115,
      "##p": 1116,
      "##ʊ": 1117,
      "##j": 1118,
      "##ə": 1119,
      "##y": 1120,
      "##9": 1121,
      "##6": 1122,
      "##7": 1123,
      "##b": 1124,
      "##v": 1125,
      "##1": 1126,
      "##3": 1127,
      "##0": 1128,
      "##ʱ": 1129,
      "##k": 1130,
      "##5": 1131,
      "##z": 1132,
      "##w": 1133,
      "##f": 1134,
      "##8": 1135,
      "##4": 1136,
      "##2": 1137,
      "##用": 1138,
      "##α": 1139,
      "##κ": 1140,
      "##ρ": 1141,
      "##ι": 1142,
      "##ο": 1143,
      "##ς": 1144,
      "##x": 1145,
      "##q": 1146,
      "##°": 1147,
      "##字": 1148,
      "##´": 1149,
      "##ﬁ": 1150,
      "##康": 1151,
      "##−": 1152,
      "##ː": 1153,
      "##ل": 1154,
      "##ع": 1155,
      "##ر": 1156,
      "##ب": 1157,
      "##ي": 1158,
      "##ة": 1159,
      "##南": 1160,
      "##方": 1161,
      "##言": 1162,
      "##普": 1163,
      "##通": 1164,
      "##話": 1165,
      "##詞": 1166,
      "##典": 1167,
      "##ʃ": 1168,
      "##ɐ": 1169,
      "##ˌ": 1170,
      "##ɛ": 1171,
      "##ɡ": 1172,
      "##ɑ": 1173,
      "##τ": 1174,
      "##ε": 1175,
      "##ν": 1176,
      "##番": 1177,
      "##×": 1178,
      "##国": 1179,
      "##最": 1180,
      "##大": 1181,
      "##的": 1182,
      "##城": 1183,
      "##市": 1184,
      "##φ": 1185,
      "##鮮": 1186,
      "##征": 1187,
      "##伐": 1188,
      "##ˈ": 1189,
      "##ˇ": 1190,
      "##ı": 1191,
      "##υ": 1192,
      "##θ": 1193,
      "##藏": 1194,
      "##ב": 1195,
      "##ו": 1196,
      "##ה": 1197,
      "##書": 1198,
      "##ث": 1199,
      "##م": 1200,
      "##ا": 1201,
      "##ن": 1202,
      "##ى": 1203,
      "##司": 1204,
      "##入": 1205,
      "##境": 1206,
      "##ɪ": 1207,
      "##λ": 1208,
      "##æ": 1209,
      "##汉": 1210,
      "##ʒ": 1211,
      "##明": 1212,
      "##进": 1213,
      "##总": 1214,
      "##决": 1215,
      "##赛": 1216,
      "##ɒ": 1217,
      "##♠": 1218,
      "##и": 1219,
      "##к": 1220,
      "##о": 1221,
      "##л": 1222,
      "##а": 1223,
      "##μ": 1224,
      "##ן": 1225,
      "##γ": 1226,
      "##η": 1227,
      "##准": 1228,
      "##了": 1229,
      "##σ": 1230,
      "##²": 1231,
      "##د": 1232,
      "##س": 1233,
      "##ω": 1234,
      "##ʾ": 1235,
      "##¨": 1236,
      "##і": 1237,
      "##в": 1238,
      "##с": 1239,
      "##ь": 1240,
      "##δ": 1241,
      "##ъ": 1242,
      "##ы": 1243,
      "##ʘ": 1244,
      "##ʰ": 1245,
      "##力": 1246,
      "##思": 1247,
      "##軍": 1248,
      "##民": 1249,
      "##元": 1250,
      "##帥": 1251,
      "##府": 1252,
      "##ﬂ": 1253,
      "##ظ": 1254,
      "##ʁ": 1255,
      "##腹": 1256,
      "##ꮝ": 1257,
      "##ꭶ": 1258,
      "##ꮿ": 1259,
      "##е": 1260,
      "##т": 1261,
      "##г": 1262,
      "##ч": 1263,
      "##田": 1264,
      "##و": 1265,
      "##重": 1266,
      "##洲": 1267,
      "##π": 1268,
      "##ข": 1269,
      "##ย": 1270,
      "##ว": 1271,
      "##ه": 1272,
      "##သ": 1273,
      "##у": 1274,
      "##д": 1275,
      "##н": 1276,
      "##п": 1277,
      "##б": 1278,
      "##£": 1279,
      "##ł": 1280,
      "##寧": 1281,
      "##題": 1282,
      "##体": 1283,
      "##ŋ": 1284,
      "##ᵻ": 1285,
      "##む": 1286,
      "##ら": 1287,
      "##ひ": 1288,
      "##ø": 1289,
      "##ל": 1290,
      "##א": 1291,
      "##ט": 1292,
      "##ʔ": 1293,
      "##ت": 1294,
      "##蕃": 1295,
      "##ɾ": 1296,
      "##ɣ": 1297,
      "##ɫ": 1298,
      "##ʻ": 1299,
      "##ר": 1300,
      "##ד": 1301,
      "##י": 1302,
      "##ת": 1303,
      "##м": 1304,
      "##ҳ": 1305,
      "##р": 1306,
      "##督": 1307,
      "##泥": 1308,
      "##→": 1309,
      "##र": 1310,
      "##ष": 1311,
      "##ß": 1312,
      "##戰": 1313,
      "##ᅵ": 1314,
      "##ᄌ": 1315,
      "##ᅡ": 1316,
      "##ᆼ": 1317,
      "##⨉": 1318,
      "##נ": 1319,
      "##撫": 1320,
      "##є": 1321,
      "##з": 1322,
      "##ی": 1323,
      "##ح": 1324,
      "##ض": 1325,
      "##曲": 1326,
      "##博": 1327,
      "##蝶": 1328,
      "##ʲ": 1329,
      "##古": 1330,
      "##忒": 1331,
      "##đ": 1332,
      "##я": 1333,
      "##ख": 1334,
      "##议": 1335,
      "##二": 1336,
      "##₂": 1337,
      "##ʌ": 1338,
      "##ァ": 1339,
      "##ミ": 1340,
      "##リ": 1341,
      "##ー": 1342,
      "##コ": 1343,
      "##ン": 1344,
      "##ヒ": 1345,
      "##ュ": 1346,
      "##タ": 1347,
      "##ʕ": 1348,
      "##ש": 1349,
      "##פ": 1350,
      "##ז": 1351,
      "##羽": 1352,
      "##漢": 1353,
      "##奉": 1354,
      "##獻": 1355,
      "##劇": 1356,
      "##ע": 1357,
      "##ק": 1358,
      "##有": 1359,
      "##天": 1360,
      "##堂": 1361,
      "##书": 1362,
      "##ج": 1363,
      "##ك": 1364,
      "##‎": 1365,
      "##甫": 1366,
      "##ᅩ": 1367,
      "##ᄒ": 1368,
      "##ᆸ": 1369,
      "##ˆ": 1370,
      "##﻿": 1371,
      "##ξ": 1372,
      "##ध": 1373,
      "##≥": 1374,
      "##χ": 1375,
      "##騷": 1376,
      "##縣": 1377,
      "##釁": 1378,
      "##区": 1379,
      "##ɜ": 1380,
      "##گ": 1381,
      "##シ": 1382,
      "##ʼ": 1383,
      "##蜀": 1384,
      "##マ": 1385,
      "##ᅳ": 1386,
      "##ᄅ": 1387,
      "##ᄉ": 1388,
      "##ᄃ": 1389,
      "##ц": 1390,
      "##ǃ": 1391,
      "##代": 1392,
      "##语": 1393,
      "##常": 1394,
      "##表": 1395,
      "##音": 1396,
      "##讀": 1397,
      "##‍": 1398,
      "##ɔ": 1399,
      "##ם": 1400,
      "##ण": 1401,
      "##¢": 1402,
      "##日": 1403,
      "##庁": 1404,
      "##ɕ": 1405,
      "##尉": 1406,
      "##项": 1407,
      "##斯": 1408,
      "##ᅧ": 1409,
      "##ᆫ": 1410,
      "##ᅢ": 1411,
      "##˨": 1412,
      "##˧": 1413,
      "##國": 1414,
      "##ǀ": 1415,
      "##ད": 1416,
      "##膺": 1417,
      "##美": 1418,
      "##援": 1419,
      "##朝": 1420,
      "##战": 1421,
      "##争": 1422,
      "##坪": 1423,
      "##铺": 1424,
      "##水": 1425,
      "##库": 1426,
      "##今": 1427,
      "##集": 1428,
      "##块": 1429,
      "##½": 1430,
      "##±": 1431,
      "##β": 1432,
      "##ق": 1433,
      "##ذ": 1434,
      "##ف": 1435,
      "##ᅮ": 1436,
      "##ᆯ": 1437,
      "##म": 1438,
      "##∗": 1439,
      "##⁄": 1440,
      "##利": 1441,
      "##支": 1442,
      "##丹": 1443,
      "##ա": 1444,
      "##ր": 1445,
      "##ս": 1446,
      "##կ": 1447,
      "##հ": 1448,
      "##յ": 1449,
      "##理": 1450,
      "##ш": 1451,
      "##建": 1452,
      "##话": 1453,
      "##士": 1454,
      "##年": 1455,
      "##都": 1456,
      "##经": 1457,
      "##济": 1458,
      "##技": 1459,
      "##术": 1460,
      "##开": 1461,
      "##发": 1462,
      "##館": 1463,
      "##ハ": 1464,
      "##フ": 1465,
      "##ʏ": 1466,
      "##˭": 1467,
      "##又": 1468,
      "##ふ": 1469,
      "##佬": 1470,
      "##淮": 1471,
      "##銖": 1472,
      "##文": 1473,
      "##白": 1474,
      "##異": 1475,
      "##斗": 1476,
      "##衛": 1477,
      "##星": 1478,
      "##導": 1479,
      "##航": 1480,
      "##系": 1481,
      "##統": 1482,
      "##绍": 1483,
      "##维": 1484,
      "##щ": 1485,
      "##り": 1486,
      "##女": 1487,
      "##十": 1488,
      "##族": 1489,
      "##メ": 1490,
      "##ル": 1491,
      "##王": 1492,
      "##献": 1493,
      "##杷": 1494,
      "##瓦": 1495,
      "##ɵ": 1496,
      "##鲜": 1497,
      "##弘": 1498,
      "##桓": 1499,
      "##夷": 1500,
      "##将": 1501,
      "##石": 1502,
      "##槐": 1503,
      "##µ": 1504,
      "##节": 1505,
      "##月": 1506,
      "##琶": 1507,
      "##閏": 1508,
      "##鲁": 1509,
      "##克": 1510,
      "##林": 1511,
      "##華": 1512,
      "##埠": 1513,
      "##ˤ": 1514,
      "##試": 1515,
      "##驗": 1516,
      "##宇": 1517,
      "##楊": 1518,
      "##子": 1519,
      "##会": 1520,
      "##主": 1521,
      "##义": 1522,
      "##腐": 1523,
      "##渣": 1524,
      "##校": 1525,
      "##舍": 1526,
      "##剑": 1527,
      "##ɨ": 1528,
      "##標": 1529,
      "##準": 1530,
      "##體": 1531,
      "##ð": 1532,
      "##˚": 1533,
      "##צ": 1534,
      "##安": 1535,
      "##時": 1536,
      "##过": 1537,
      "##陵": 1538,
      "##¥": 1539,
      "##上": 1540,
      "##総": 1541,
      "##介": 1542,
      "##三": 1543,
      "##郎": 1544,
      "##信": 1545,
      "##長": 1546,
      "##平": 1547,
      "##考": 1548,
      "##试": 1549,
      "##ח": 1550,
      "##業": 1551,
      "##学": 1552,
      "##潮": 1553,
      "##þ": 1554,
      "##師": 1555,
      "##索": 1556,
      "##œ": 1557,
      "##浙": 1558,
      "##洞": 1559,
      "##宗": 1560,
      "##清": 1561,
      "##爭": 1562,
      "##ص": 1563,
      "##光": 1564,
      "##川": 1565,
      "##地": 1566,
      "##震": 1567,
      "##灾": 1568,
      "##后": 1569,
      "##恢": 1570,
      "##复": 1571,
      "##对": 1572,
      "##口": 1573,
      "##案": 1574,
      "##ю": 1575,
      "##ס": 1576,
      "##¯": 1577,
      "##印": 1578,
      "##船": 1579,
      "##起": 1580,
      "##​": 1581,
      "##˜": 1582,
      "##皇": 1583,
      "##帝": 1584,
      "##ꮃ": 1585,
      "##ꮀ": 1586,
      "##ꮉ": 1587,
      "##ʂ": 1588,
      "##包": 1589,
      "##ส": 1590,
      "##ด": 1591,
      "##ง": 1592,
      "##つ": 1593,
      "##米": 1594,
      "##臣": 1595,
      "##秀": 1596,
      "##吉": 1597,
      "##ζ": 1598,
      "##の": 1599,
      "##伝": 1600,
      "##説": 1601,
      "##♯": 1602,
      "##薩": 1603,
      "##京": 1604,
      "##捨": 1605,
      "##て": 1606,
      "##御": 1607,
      "##免": 1608,
      "##ɭ": 1609,
      "##ʈ": 1610,
      "##ɳ": 1611,
      "##ɖ": 1612,
      "##卫": 1613,
      "##导": 1614,
      "##验": 1615,
      "##统": 1616,
      "##英": 1617,
      "##奐": 1618,
      "##工": 1619,
      "##程": 1620,
      "##ג": 1621,
      "##紹": 1622,
      "##維": 1623,
      "##喜": 1624,
      "##ʀ": 1625,
      "##ɥ": 1626,
      "##خ": 1627,
      "##ך": 1628,
      "##ಲ": 1629,
      "##ಕ": 1630,
      "##ಯ": 1631,
      "##ರ": 1632,
      "##モ": 1633,
      "##ス": 1634,
      "##漳": 1635,
      "##片": 1636,
      "##拉": 1637,
      "##盛": 1638,
      "##江": 1639,
      "##מ": 1640,
      "##ײ": 1641,
      "##ψ": 1642,
      "##𐀊": 1643,
      "##𐀍": 1644,
      "##𐀚": 1645,
      "##տ": 1646,
      "##ն": 1647,
      "##ց": 1648,
      "##ի": 1649,
      "##ж": 1650,
      "##高": 1651,
      "##新": 1652,
      "##产": 1653,
      "##业": 1654,
      "##х": 1655,
      "##ᄋ": 1656,
      "##ᆷ": 1657,
      "##過": 1658,
      "##ड": 1659,
      "##प": 1660,
      "##ˀ": 1661,
      "##ᅥ": 1662,
      "##ᄇ": 1663,
      "##之": 1664,
      "##人": 1665,
      "##親": 1666,
      "##ম": 1667,
      "##র": 1668,
      "##জ": 1669,
      "##য": 1670,
      "##ħ": 1671,
      "##萨": 1672,
      "##鬱": 1673,
      "##審": 1674,
      "##知": 1675,
      "##道": 1676,
      "##邑": 1677,
      "##ร": 1678,
      "##เ": 1679,
      "##น": 1680,
      "##ศ": 1681,
      "##า": 1682,
      "##อ": 1683,
      "##ล": 1684,
      "##ม": 1685,
      "##⋅": 1686,
      "##ˑ": 1687,
      "##澄": 1688,
      "##公": 1689,
      "##ѣ": 1690,
      "##草": 1691,
      "##ᆨ": 1692,
      "##ᄀ": 1693,
      "##ᅭ": 1694,
      "##ܪ": 1695,
      "##ܝ": 1696,
      "##ܢ": 1697,
      "##ܐ": 1698,
      "##良": 1699,
      "##佐": 1700,
      "##才": 1701,
      "##済": 1702,
      "##把": 1703,
      "##奴": 1704,
      "##˥": 1705,
      "##˩": 1706,
      "##徒": 1707,
      "##爱": 1708,
      "##流": 1709,
      "##不": 1710,
      "##息": 1711,
      "##語": 1712,
      "##仕": 1713,
      "##様": 1714,
      "##题": 1715,
      "##ን": 1716,
      "##ল": 1717,
      "##ላ": 1718,
      "##ሪ": 1719,
      "##动": 1720,
      "##图": 1721,
      "##们": 1722,
      "##ء": 1723,
      "##団": 1724,
      "##制": 1725,
      "##チ": 1726,
      "##ャ": 1727,
      "##可": 1728,
      "##於": 1729,
      "##門": 1730,
      "##仔": 1731,
      "##約": 1732,
      "##家": 1733,
      "##ಮ": 1734,
      "##ಜ": 1735,
      "##ʷ": 1736,
      "##ಶ": 1737,
      "##ಚ": 1738,
      "##ش": 1739,
      "##न": 1740,
      "##त": 1741,
      "##議": 1742,
      "##苗": 1743,
      "##歌": 1744,
      "##緩": 1745,
      "##ワ": 1746,
      "##イ": 1747,
      "##ラ": 1748,
      "##ト": 1749,
      "##セ": 1750,
      "##節": 1751,
      "##ꮎ": 1752,
      "##ꮟ": 1753,
      "##東": 1754,
      "##亜": 1755,
      "##戦": 1756,
      "##伯": 1757,
      "##特": 1758,
      "##州": 1759,
      "##西": 1760,
      "##樂": 1761,
      "##那": 1762,
      "##庆": 1763,
      "##先": 1764,
      "##य": 1765,
      "##法": 1766,
      "##ᅲ": 1767,
      "##ᄑ": 1768,
      "##鄴": 1769,
      "##ɯ": 1770,
      "##教": 1771,
      "##ठ": 1772,
      "##号": 1773,
      "##ग": 1774,
      "##स": 1775,
      "##ई": 1776,
      "##事": 1777,
      "##変": 1778,
      "##ⲏ": 1779,
      "##ⲙ": 1780,
      "##ⲓ": 1781,
      "##ሂ": 1782,
      "##ロ": 1783,
      "##レ": 1784,
      "##坤": 1785,
      "##ッ": 1786,
      "##ꭸ": 1787,
      "##ᏹ": 1788,
      "##域": 1789,
      "##火": 1790,
      "##炉": 1791,
      "##海": 1792,
      "##是": 1793,
      "##风": 1794,
      "##仪": 1795,
      "##政": 1796,
      "##◦": 1797,
      "##层": 1798,
      "##空": 1799,
      "##顯": 1800,
      "##ꜣ": 1801,
      "##ҷ": 1802,
      "##分": 1803,
      "##ろ": 1804,
      "##は": 1805,
      "##ф": 1806,
      "##բ": 1807,
      "##苏": 1808,
      "##杭": 1809,
      "##ᅨ": 1810,
      "##ᅬ": 1811,
      "##€": 1812,
      "##क": 1813,
      "##塊": 1814,
      "##捐": 1815,
      "##款": 1816,
      "##一": 1817,
      "##百": 1818,
      "##万": 1819,
      "##見": 1820,
      "##鋪": 1821,
      "##庫": 1822,
      "##¸": 1823,
      "##ǂ": 1824,
      "##浦": 1825,
      "##按": 1826,
      "##針": 1827,
      "##惡": 1828,
      "##廚": 1829,
      "##陋": 1830,
      "##習": 1831,
      "##る": 1832,
      "##瑚": 1833,
      "##ǁ": 1834,
      "##土": 1835,
      "##松": 1836,
      "##武": 1837,
      "##兵": 1838,
      "##島": 1839,
      "##he": 1840,
      "the": 1841,
      "##er": 1842,
      "##at": 1843,
      "##on": 1844,
      "##in": 1845,
      "##es": 1846,
      "##ed": 1847,
      "##an": 1848,
      "##en": 1849,
      "##or": 1850,
      "in": 1851,
      "of": 1852,
      "##al": 1853,
      "##ar": 1854,
      "##it": 1855,
      "an": 1856,
      "##ic": 1857,
      "##as": 1858,
      "##ion": 1859,
      "##is": 1860,
      "##ing": 1861,
      "##re": 1862,
      "and": 1863,
      "to": 1864,
      "wh": 1865,
      "##ro": 1866,
      "##ent": 1867,
      "##ou": 1868,
      "##le": 1869,
      "##om": 1870,
      "##el": 1871,
      "##st": 1872,
      "th": 1873,
      "##ec": 1874,
      "##il": 1875,
      "##id": 1876,
      "is": 1877,
      "what": 1878,
      "##ol": 1879,
      "##ur": 1880,
      "##ation": 1881,
      "##et": 1882,
      "##ac": 1883,
      "##am": 1884,
      "for": 1885,
      "##iv": 1886,
      "##ly": 1887,
      "st": 1888,
      "##ow": 1889,
      "as": 1890,
      "##ad": 1891,
      "was": 1892,
      "##ig": 1893,
      "re": 1894,
      "on": 1895,
      "##ir": 1896,
      "##ter": 1897,
      "##ts": 1898,
      "con": 1899,
      "##ot": 1900,
      "##ch": 1901,
      "##ce": 1902,
      "##ut": 1903,
      "be": 1904,
      "al": 1905,
      "##ul": 1906,
      "##im": 1907,
      "##se": 1908,
      "##ith": 1909,
      "##ers": 1910,
      "##em": 1911,
      "with": 1912,
      "by": 1913,
      "##th": 1914,
      "that": 1915,
      "##ct": 1916,
      "pro": 1917,
      "##op": 1918,
      "##us": 1919,
      "com": 1920,
      "##ay": 1921,
      "ch": 1922,
      "##ver": 1923,
      "##her": 1924,
      "##est": 1925,
      "are": 1926,
      "or": 1927,
      "##ity": 1928,
      "##ag": 1929,
      "su": 1930,
      "##od": 1931,
      "un": 1932,
      "##ain": 1933,
      "##av": 1934,
      "##and": 1935,
      "##ies": 1936,
      "##ist": 1937,
      "##um": 1938,
      "##ate": 1939,
      "##un": 1940,
      "##rom": 1941,
      "de": 1942,
      "ex": 1943,
      "##ich": 1944,
      "##ab": 1945,
      "at": 1946,
      "##oun": 1947,
      "from": 1948,
      "ne": 1949,
      "##ess": 1950,
      "##os": 1951,
      "en": 1952,
      "##ap": 1953,
      "19": 1954,
      "##oc": 1955,
      "##ian": 1956,
      "pr": 1957,
      "which": 1958,
      "##if": 1959,
      "##ial": 1960,
      "whe": 1961,
      "20": 1962,
      "did": 1963,
      "tr": 1964,
      "sp": 1965,
      "##ud": 1966,
      "ar": 1967,
      "se": 1968,
      "##ere": 1969,
      "##ated": 1970,
      "##ia": 1971,
      "##ment": 1972,
      "were": 1973,
      "it": 1974,
      "par": 1975,
      "##ive": 1976,
      "##ld": 1977,
      "##ect": 1978,
      "##ear": 1979,
      "##igh": 1980,
      "##ical": 1981,
      "wor": 1982,
      "##pp": 1983,
      "##ort": 1984,
      "##ib": 1985,
      "who": 1986,
      "##all": 1987,
      "man": 1988,
      "us": 1989,
      "##ant": 1990,
      "##ost": 1991,
      "how": 1992,
      "##ak": 1993,
      "##ill": 1994,
      "le": 1995,
      "##ave": 1996,
      "##qu": 1997,
      "comp": 1998,
      "##ther": 1999,
      "##mp": 2000,
      "##ame": 2001,
      "##ore": 2002,
      "##og": 2003,
      "##ip": 2004,
      "##ge": 2005,
      "##ard": 2006,
      "pl": 2007,
      "##gh": 2008,
      "##ome": 2009,
      "##ary": 2010,
      "##ions": 2011,
      "##ast": 2012,
      "not": 2013,
      "##our": 2014,
      "cont": 2015,
      "he": 2016,
      "##ong": 2017,
      "cl": 2018,
      "sh": 2019,
      "inc": 2020,
      "##ure": 2021,
      "##ish": 2022,
      "##iz": 2023,
      "##du": 2024,
      "##ans": 2025,
      "res": 2026,
      "do": 2027,
      "ad": 2028,
      "##end": 2029,
      "##ous": 2030,
      "have": 2031,
      "##ence": 2032,
      "##cc": 2033,
      "##ell": 2034,
      "when": 2035,
      "##age": 2036,
      "this": 2037,
      "af": 2038,
      "per": 2039,
      "##ass": 2040,
      "##ub": 2041,
      "##ations": 2042,
      "##rit": 2043,
      "many": 2044,
      "##ie": 2045,
      "int": 2046,
      "##pt": 2047,
      "##ov": 2048,
      "has": 2049,
      "##ber": 2050,
      "am": 2051,
      "##ine": 2052,
      "can": 2053,
      "comm": 2054,
      "##ue": 2055,
      "##ang": 2056,
      "##per": 2057,
      "ab": 2058,
      "cent": 2059,
      "##der": 2060,
      "other": 2061,
      "##ual": 2062,
      "all": 2063,
      "his": 2064,
      "its": 2065,
      "year": 2066,
      "new": 2067,
      "##ult": 2068,
      "##so": 2069,
      "##erm": 2070,
      "##fer": 2071,
      "##rou": 2072,
      "rec": 2073,
      "part": 2074,
      "fir": 2075,
      "their": 2076,
      "##act": 2077,
      "##ount": 2078,
      "fr": 2079,
      "##ign": 2080,
      "##ry": 2081,
      "##ight": 2082,
      "##00": 2083,
      "##ates": 2084,
      "first": 2085,
      "##ition": 2086,
      "also": 2087,
      "##over": 2088,
      "one": 2089,
      "rep": 2090,
      "##ire": 2091,
      "dis": 2092,
      "##out": 2093,
      "sy": 2094,
      "most": 2095,
      "##tern": 2096,
      "gre": 2097,
      "ind": 2098,
      "app": 2099,
      "had": 2100,
      "sc": 2101,
      "##ack": 2102,
      "rel": 2103,
      "form": 2104,
      "##ra": 2105,
      "##ould": 2106,
      "##ance": 2107,
      "we": 2108,
      "##ents": 2109,
      "200": 2110,
      "##ding": 2111,
      "##own": 2112,
      "col": 2113,
      "bec": 2114,
      "##ds": 2115,
      "##ely": 2116,
      "##ach": 2117,
      "city": 2118,
      "tim": 2119,
      "mar": 2120,
      "##ide": 2121,
      "##ust": 2122,
      "201": 2123,
      "ag": 2124,
      "##uring": 2125,
      "tw": 2126,
      "gen": 2127,
      "##pe": 2128,
      "##lud": 2129,
      "##lic": 2130,
      "##ction": 2131,
      "##orm": 2132,
      "##ater": 2133,
      "but": 2134,
      "##ru": 2135,
      "##ens": 2136,
      "ev": 2137,
      "##ric": 2138,
      "##enc": 2139,
      "pol": 2140,
      "##ace": 2141,
      "cons": 2142,
      "pe": 2143,
      "where": 2144,
      "pop": 2145,
      "##ational": 2146,
      "some": 2147,
      "##land": 2148,
      "##amp": 2149,
      "##etw": 2150,
      "##ik": 2151,
      "imp": 2152,
      "me": 2153,
      "used": 2154,
      "##ond": 2155,
      "more": 2156,
      "includ": 2157,
      "##vel": 2158,
      "##erv": 2159,
      "ph": 2160,
      "##hed": 2161,
      "reg": 2162,
      "18": 2163,
      "dec": 2164,
      "##able": 2165,
      "##ice": 2166,
      "##ied": 2167,
      "des": 2168,
      "te": 2169,
      "they": 2170,
      "##ory": 2171,
      "such": 2172,
      "pre": 2173,
      "over": 2174,
      "after": 2175,
      "war": 2176,
      "been": 2177,
      "two": 2178,
      "during": 2179,
      "##ks": 2180,
      "exp": 2181,
      "##ors": 2182,
      "ele": 2183,
      "##ism": 2184,
      "##eral": 2185,
      "lar": 2186,
      "##ough": 2187,
      "##ited": 2188,
      "count": 2189,
      "##ound": 2190,
      "##ade": 2191,
      "##aw": 2192,
      "fe": 2193,
      "mod": 2194,
      "##au": 2195,
      "ear": 2196,
      "kn": 2197,
      "##een": 2198,
      "##les": 2199,
      "into": 2200,
      "sch": 2201,
      "##ile": 2202,
      "acc": 2203,
      "##stem": 2204,
      "##ff": 2205,
      "there": 2206,
      "##eric": 2207,
      "gr": 2208,
      "popul": 2209,
      "does": 2210,
      "system": 2211,
      "##ities": 2212,
      "##ted": 2213,
      "ma": 2214,
      "##ase": 2215,
      "world": 2216,
      "##ok": 2217,
      "##ased": 2218,
      "##ree": 2219,
      "ro": 2220,
      "car": 2221,
      "time": 2222,
      "off": 2223,
      "inf": 2224,
      "att": 2225,
      "pres": 2226,
      "##olog": 2227,
      "betw": 2228,
      "##ood": 2229,
      "between": 2230,
      "##ail": 2231,
      "than": 2232,
      "##duc": 2233,
      "##ury": 2234,
      "##ious": 2235,
      "up": 2236,
      "state": 2237,
      "##overn": 2238,
      "##ose": 2239,
      "govern": 2240,
      "emp": 2241,
      "under": 2242,
      "##ivers": 2243,
      "##ower": 2244,
      "sec": 2245,
      "call": 2246,
      "use": 2247,
      "##gan": 2248,
      "americ": 2249,
      "##hn": 2250,
      "##ten": 2251,
      "##ite": 2252,
      "these": 2253,
      "trans": 2254,
      "ty": 2255,
      "peop": 2256,
      "ass": 2257,
      "mon": 2258,
      "br": 2259,
      "##inal": 2260,
      "ac": 2261,
      "##ress": 2262,
      "##rough": 2263,
      "sub": 2264,
      "est": 2265,
      "##und": 2266,
      "##ific": 2267,
      "##ons": 2268,
      "inst": 2269,
      "may": 2270,
      "##ution": 2271,
      "loc": 2272,
      "sou": 2273,
      "char": 2274,
      "lang": 2275,
      "##ake": 2276,
      "##ics": 2277,
      "eng": 2278,
      "langu": 2279,
      "pub": 2280,
      "mu": 2281,
      "people": 2282,
      "states": 2283,
      "eu": 2284,
      "##wn": 2285,
      "century": 2286,
      "out": 2287,
      "bo": 2288,
      "bu": 2289,
      "act": 2290,
      "##ative": 2291,
      "##ath": 2292,
      "##roup": 2293,
      "##velop": 2294,
      "##oll": 2295,
      "##oin": 2296,
      "spec": 2297,
      "##ool": 2298,
      "inv": 2299,
      "num": 2300,
      "stud": 2301,
      "only": 2302,
      "develop": 2303,
      "mus": 2304,
      "met": 2305,
      "so": 2306,
      "##res": 2307,
      "min": 2308,
      "##anc": 2309,
      "inter": 2310,
      "bl": 2311,
      "##oth": 2312,
      "group": 2313,
      "air": 2314,
      "def": 2315,
      "dif": 2316,
      "name": 2317,
      "would": 2318,
      "nor": 2319,
      "##iet": 2320,
      "univers": 2321,
      "cap": 2322,
      "##te": 2323,
      "##ines": 2324,
      "about": 2325,
      "fl": 2326,
      "id": 2327,
      "##ating": 2328,
      "cor": 2329,
      "called": 2330,
      "term": 2331,
      "prov": 2332,
      "euro": 2333,
      "##ern": 2334,
      "arm": 2335,
      "##ural": 2336,
      "##iss": 2337,
      "##ters": 2338,
      "government": 2339,
      "through": 2340,
      "##ind": 2341,
      "##ince": 2342,
      "##rib": 2343,
      "##art": 2344,
      "united": 2345,
      "no": 2346,
      "serv": 2347,
      "##ient": 2348,
      "known": 2349,
      "lik": 2350,
      "brit": 2351,
      "qu": 2352,
      "found": 2353,
      "##ists": 2354,
      "cre": 2355,
      "##ft": 2356,
      "##ep": 2357,
      "europe": 2358,
      "em": 2359,
      "##ral": 2360,
      "supp": 2361,
      "const": 2362,
      "##ict": 2363,
      "class": 2364,
      "set": 2365,
      "disc": 2366,
      "work": 2367,
      "##form": 2368,
      "##one": 2369,
      "school": 2370,
      "maj": 2371,
      "high": 2372,
      "dist": 2373,
      "play": 2374,
      "buil": 2375,
      "str": 2376,
      "##uss": 2377,
      "dep": 2378,
      "hel": 2379,
      "them": 2380,
      "pos": 2381,
      "##any": 2382,
      "##ord": 2383,
      "co": 2384,
      "##ures": 2385,
      "##ular": 2386,
      "major": 2387,
      "##ished": 2388,
      "##ings": 2389,
      "rem": 2390,
      "199": 2391,
      "bel": 2392,
      "##are": 2393,
      "north": 2394,
      "##lish": 2395,
      "larg": 2396,
      "her": 2397,
      "##io": 2398,
      "##hes": 2399,
      "while": 2400,
      "sim": 2401,
      "##red": 2402,
      "##ians": 2403,
      "differ": 2404,
      "germ": 2405,
      "med": 2406,
      "years": 2407,
      "##ized": 2408,
      "end": 2409,
      "mem": 2410,
      "art": 2411,
      "general": 2412,
      "each": 2413,
      "hist": 2414,
      "south": 2415,
      "elect": 2416,
      "##lo": 2417,
      "soc": 2418,
      "##urn": 2419,
      "rev": 2420,
      "##ward": 2421,
      "var": 2422,
      "made": 2423,
      "national": 2424,
      "##ually": 2425,
      "ob": 2426,
      "language": 2427,
      "##ause": 2428,
      "hum": 2429,
      "##ement": 2430,
      "##xt": 2431,
      "##old": 2432,
      "##hip": 2433,
      "main": 2434,
      "##ek": 2435,
      "will": 2436,
      "examp": 2437,
      "##gy": 2438,
      "##ants": 2439,
      "##ert": 2440,
      "mov": 2441,
      "law": 2442,
      "day": 2443,
      "##tle": 2444,
      "long": 2445,
      "##ug": 2446,
      "000": 2447,
      "##gr": 2448,
      "##cent": 2449,
      "##ys": 2450,
      "##als": 2451,
      "number": 2452,
      "sign": 2453,
      "##ider": 2454,
      "##iod": 2455,
      "##ph": 2456,
      "early": 2457,
      "power": 2458,
      "##ically": 2459,
      "foll": 2460,
      "jo": 2461,
      "population": 2462,
      "##round": 2463,
      "##iev": 2464,
      "##ah": 2465,
      "ext": 2466,
      "common": 2467,
      "mil": 2468,
      "follow": 2469,
      "like": 2470,
      "occ": 2471,
      "both": 2472,
      "##led": 2473,
      "##con": 2474,
      "american": 2475,
      "eff": 2476,
      "##rol": 2477,
      "lead": 2478,
      "##ale": 2479,
      "##ible": 2480,
      "orig": 2481,
      "much": 2482,
      "pers": 2483,
      "##ock": 2484,
      "well": 2485,
      "add": 2486,
      "##oman": 2487,
      "bro": 2488,
      "##ey": 2489,
      "##mm": 2490,
      "intern": 2491,
      "again": 2492,
      "##ever": 2493,
      "sm": 2494,
      "##cept": 2495,
      "period": 2496,
      "sl": 2497,
      "##ject": 2498,
      "being": 2499,
      "##ning": 2500,
      "##ility": 2501,
      "##ank": 2502,
      "often": 2503,
      "since": 2504,
      "##ton": 2505,
      "##ily": 2506,
      "##ces": 2507,
      "##ork": 2508,
      "cult": 2509,
      "including": 2510,
      "##ss": 2511,
      "##0s": 2512,
      "organ": 2513,
      "second": 2514,
      "spe": 2515,
      "##ident": 2516,
      "##ages": 2517,
      "##illion": 2518,
      "##ature": 2519,
      "##ially": 2520,
      "oper": 2521,
      "##ects": 2522,
      "17": 2523,
      "##ina": 2524,
      "aut": 2525,
      "##ise": 2526,
      "based": 2527,
      "king": 2528,
      "##other": 2529,
      "##way": 2530,
      "##ier": 2531,
      "sur": 2532,
      "became": 2533,
      "offic": 2534,
      "country": 2535,
      "ann": 2536,
      "type": 2537,
      "chur": 2538,
      "consider": 2539,
      "##ason": 2540,
      "av": 2541,
      "university": 2542,
      "commun": 2543,
      "however": 2544,
      "red": 2545,
      "contin": 2546,
      "west": 2547,
      "public": 2548,
      "music": 2549,
      "##ained": 2550,
      "colle": 2551,
      "three": 2552,
      "fam": 2553,
      "prot": 2554,
      "val": 2555,
      "##ology": 2556,
      "##ix": 2557,
      "area": 2558,
      "resp": 2559,
      "##ally": 2560,
      "##lished": 2561,
      "##cess": 2562,
      "##ced": 2563,
      "incre": 2564,
      "if": 2565,
      "##ember": 2566,
      "need": 2567,
      "##ments": 2568,
      "##fore": 2569,
      "##ues": 2570,
      "trad": 2571,
      "stand": 2572,
      "polit": 2573,
      "##its": 2574,
      "##ision": 2575,
      "later": 2576,
      "ret": 2577,
      "##ather": 2578,
      "##na": 2579,
      "##sp": 2580,
      "##row": 2581,
      "mat": 2582,
      "##ery": 2583,
      "word": 2584,
      "##bers": 2585,
      "##ene": 2586,
      "any": 2587,
      "##rop": 2588,
      "##ange": 2589,
      "det": 2590,
      "fil": 2591,
      "port": 2592,
      "tre": 2593,
      "##ium": 2594,
      "el": 2595,
      "##ording": 2596,
      "example": 2597,
      "##ived": 2598,
      "great": 2599,
      "##gin": 2600,
      "##iel": 2601,
      "div": 2602,
      "cour": 2603,
      "##ild": 2604,
      "dire": 2605,
      "10": 2606,
      "estab": 2607,
      "198": 2608,
      "british": 2609,
      "je": 2610,
      "land": 2611,
      "ent": 2612,
      "##pen": 2613,
      "partic": 2614,
      "##az": 2615,
      "control": 2616,
      "large": 2617,
      "repres": 2618,
      "island": 2619,
      "writ": 2620,
      "hou": 2621,
      "##echn": 2622,
      "sever": 2623,
      "chr": 2624,
      "##ann": 2625,
      "##acter": 2626,
      "##ries": 2627,
      "arch": 2628,
      "sa": 2629,
      "##ains": 2630,
      "##lu": 2631,
      "model": 2632,
      "##por": 2633,
      "mid": 2634,
      "##ital": 2635,
      "##elf": 2636,
      "old": 2637,
      "##ench": 2638,
      "import": 2639,
      "sw": 2640,
      "she": 2641,
      "##ful": 2642,
      "dem": 2643,
      "dr": 2644,
      "##ruct": 2645,
      "15": 2646,
      "could": 2647,
      "produ": 2648,
      "different": 2649,
      "relig": 2650,
      "som": 2651,
      "##ames": 2652,
      "cur": 2653,
      "##ives": 2654,
      "modern": 2655,
      "197": 2656,
      "phil": 2657,
      "##up": 2658,
      "led": 2659,
      "##air": 2660,
      "gu": 2661,
      "##ization": 2662,
      "mark": 2663,
      "econ": 2664,
      "econom": 2665,
      "cr": 2666,
      "human": 2667,
      "john": 2668,
      "against": 2669,
      "then": 2670,
      "own": 2671,
      "##ences": 2672,
      "ant": 2673,
      "16": 2674,
      "produc": 2675,
      "french": 2676,
      "prim": 2677,
      "##ting": 2678,
      "leg": 2679,
      "largest": 2680,
      "prob": 2681,
      "non": 2682,
      "sing": 2683,
      "because": 2684,
      "##olv": 2685,
      "desc": 2686,
      "dom": 2687,
      "represent": 2688,
      "##ms": 2689,
      "##iew": 2690,
      "##iam": 2691,
      "church": 2692,
      "ge": 2693,
      "##ech": 2694,
      "##aph": 2695,
      "along": 2696,
      "##ently": 2697,
      "east": 2698,
      "result": 2699,
      "##til": 2700,
      "12": 2701,
      "##ize": 2702,
      "##ick": 2703,
      "show": 2704,
      "english": 2705,
      "##ior": 2706,
      "fre": 2707,
      "hig": 2708,
      "region": 2709,
      "techn": 2710,
      "rele": 2711,
      "##ices": 2712,
      "conf": 2713,
      "milit": 2714,
      "##min": 2715,
      "##uc": 2716,
      "##olution": 2717,
      "support": 2718,
      "##man": 2719,
      "million": 2720,
      "four": 2721,
      "lit": 2722,
      "empire": 2723,
      "same": 2724,
      "comple": 2725,
      "##eng": 2726,
      "before": 2727,
      "ca": 2728,
      "##ided": 2729,
      "##osed": 2730,
      "another": 2731,
      "ever": 2732,
      "design": 2733,
      "pat": 2734,
      "several": 2735,
      "influ": 2736,
      "christ": 2737,
      "allow": 2738,
      "small": 2739,
      "##ute": 2740,
      "##estern": 2741,
      "process": 2742,
      "prev": 2743,
      "among": 2744,
      "requ": 2745,
      "##aining": 2746,
      "pass": 2747,
      "president": 2748,
      "196": 2749,
      "appro": 2750,
      "lib": 2751,
      "adv": 2752,
      "##ention": 2753,
      "##ency": 2754,
      "##ides": 2755,
      "international": 2756,
      "back": 2757,
      "ap": 2758,
      "refer": 2759,
      "fun": 2760,
      "##get": 2761,
      "order": 2762,
      "##ife": 2763,
      "according": 2764,
      "la": 2765,
      "##inc": 2766,
      "lab": 2767,
      "##ty": 2768,
      "##ross": 2769,
      "fin": 2770,
      "near": 2771,
      "tem": 2772,
      "direct": 2773,
      "##ised": 2774,
      "political": 2775,
      "alth": 2776,
      "though": 2777,
      "ir": 2778,
      "go": 2779,
      "although": 2780,
      "##iver": 2781,
      "ed": 2782,
      "##aking": 2783,
      "german": 2784,
      "percent": 2785,
      "##ri": 2786,
      "ref": 2787,
      "conc": 2788,
      "bat": 2789,
      "sent": 2790,
      "located": 2791,
      "bar": 2792,
      "until": 2793,
      "##ole": 2794,
      "##yn": 2795,
      "##ued": 2796,
      "house": 2797,
      "typ": 2798,
      "win": 2799,
      "aff": 2800,
      "##amm": 2801,
      "afric": 2802,
      "include": 2803,
      "way": 2804,
      "those": 2805,
      "coun": 2806,
      "around": 2807,
      "hy": 2808,
      "begin": 2809,
      "##gg": 2810,
      "child": 2811,
      "ins": 2812,
      "cit": 2813,
      "russ": 2814,
      "pur": 2815,
      "##ified": 2816,
      "ter": 2817,
      "##ink": 2818,
      "european": 2819,
      "military": 2820,
      "within": 2821,
      "him": 2822,
      "##ience": 2823,
      "##ively": 2824,
      "##par": 2825,
      "##used": 2826,
      "building": 2827,
      "roman": 2828,
      "##ights": 2829,
      "countries": 2830,
      "important": 2831,
      "stat": 2832,
      "ser": 2833,
      "down": 2834,
      "enc": 2835,
      "##oci": 2836,
      "##oint": 2837,
      "##iven": 2838,
      "fed": 2839,
      "##ccess": 2840,
      "##hen": 2841,
      "jew": 2842,
      "rece": 2843,
      "eas": 2844,
      "company": 2845,
      "##str": 2846,
      "lo": 2847,
      "began": 2848,
      "associ": 2849,
      "indu": 2850,
      "194": 2851,
      "histor": 2852,
      "rest": 2853,
      "considered": 2854,
      "##igr": 2855,
      "curr": 2856,
      "bas": 2857,
      "standard": 2858,
      "original": 2859,
      "##port": 2860,
      "now": 2861,
      "##ined": 2862,
      "##hem": 2863,
      "##ars": 2864,
      "words": 2865,
      "##orts": 2866,
      "even": 2867,
      "##erc": 2868,
      "perform": 2869,
      "tradition": 2870,
      "become": 2871,
      "mean": 2872,
      "##ams": 2873,
      "person": 2874,
      "##itions": 2875,
      "progr": 2876,
      "treat": 2877,
      "##orn": 2878,
      "head": 2879,
      "army": 2880,
      "bus": 2881,
      "success": 2882,
      "instit": 2883,
      "195": 2884,
      "##inese": 2885,
      "educ": 2886,
      "et": 2887,
      "open": 2888,
      "occur": 2889,
      "chinese": 2890,
      "##atic": 2891,
      "using": 2892,
      "##aced": 2893,
      "development": 2894,
      "##ins": 2895,
      "##ke": 2896,
      "aust": 2897,
      "place": 2898,
      "make": 2899,
      "##ival": 2900,
      "times": 2901,
      "greek": 2902,
      "hav": 2903,
      "##epend": 2904,
      "##oph": 2905,
      "poss": 2906,
      "fact": 2907,
      "members": 2908,
      "jap": 2909,
      "conv": 2910,
      "##ague": 2911,
      "##ony": 2912,
      "##els": 2913,
      "decl": 2914,
      "##pl": 2915,
      "japan": 2916,
      "##ired": 2917,
      "stre": 2918,
      "central": 2919,
      "independ": 2920,
      "del": 2921,
      "##ont": 2922,
      "social": 2923,
      "lat": 2924,
      "gl": 2925,
      "constit": 2926,
      "##ilar": 2927,
      "ide": 2928,
      "particular": 2929,
      "popular": 2930,
      "##ases": 2931,
      "##ared": 2932,
      "level": 2933,
      "water": 2934,
      "##ergy": 2935,
      "##ection": 2936,
      "species": 2937,
      "##ets": 2938,
      "vis": 2939,
      "following": 2940,
      "##une": 2941,
      "11": 2942,
      "similar": 2943,
      "run": 2944,
      "western": 2945,
      "##istic": 2946,
      "event": 2947,
      "tit": 2948,
      "areas": 2949,
      "due": 2950,
      "home": 2951,
      "exper": 2952,
      "##dom": 2953,
      "##ended": 2954,
      "dat": 2955,
      "last": 2956,
      "bre": 2957,
      "nat": 2958,
      "equ": 2959,
      "##pre": 2960,
      "##mb": 2961,
      "##ird": 2962,
      "party": 2963,
      "##af": 2964,
      "##ator": 2965,
      "##ately": 2966,
      "vict": 2967,
      "relations": 2968,
      "##day": 2969,
      "##lect": 2970,
      "##ission": 2971,
      "still": 2972,
      "established": 2973,
      "repub": 2974,
      "##put": 2975,
      "season": 2976,
      "light": 2977,
      "##hest": 2978,
      "conn": 2979,
      "auth": 2980,
      "##oss": 2981,
      "republic": 2982,
      "fo": 2983,
      "##ief": 2984,
      "intro": 2985,
      "14": 2986,
      "13": 2987,
      "addition": 2988,
      "##br": 2989,
      "##alth": 2990,
      "##iving": 2991,
      "dev": 2992,
      "help": 2993,
      "rad": 2994,
      "##ense": 2995,
      "describ": 2996,
      "grow": 2997,
      "rul": 2998,
      "china": 2999,
      "groups": 3000,
      "center": 3001,
      "ident": 3002,
      "energy": 3003,
      "nam": 3004,
      "france": 3005,
      "take": 3006,
      "far": 3007,
      "ta": 3008,
      "chang": 3009,
      "imm": 3010,
      "life": 3011,
      "cal": 3012,
      "##bs": 3013,
      "##ese": 3014,
      "crit": 3015,
      "##ured": 3016,
      "##aim": 3017,
      "very": 3018,
      "late": 3019,
      "civ": 3020,
      "##ogr": 3021,
      "##enn": 3022,
      "##ected": 3023,
      "##iety": 3024,
      "##ll": 3025,
      "##rov": 3026,
      "court": 3027,
      "needed": 3028,
      "why": 3029,
      "archit": 3030,
      "ii": 3031,
      "anc": 3032,
      "prof": 3033,
      "lond": 3034,
      "final": 3035,
      "opp": 3036,
      "resear": 3037,
      "##ule": 3038,
      "bod": 3039,
      "character": 3040,
      "official": 3041,
      "har": 3042,
      "york": 3043,
      "##ories": 3044,
      "vi": 3045,
      "london": 3046,
      "death": 3047,
      "federal": 3048,
      "league": 3049,
      "given": 3050,
      "white": 3051,
      "appear": 3052,
      "history": 3053,
      "local": 3054,
      "##iqu": 3055,
      "god": 3056,
      "nort": 3057,
      "cop": 3058,
      "lim": 3059,
      "view": 3060,
      "developed": 3061,
      "ur": 3062,
      "##ness": 3063,
      "##son": 3064,
      "inform": 3065,
      "prop": 3066,
      "record": 3067,
      "union": 3068,
      "held": 3069,
      "forces": 3070,
      "sol": 3071,
      "pract": 3072,
      "just": 3073,
      "hol": 3074,
      "##ister": 3075,
      "##ract": 3076,
      "##ball": 3077,
      "systems": 3078,
      "star": 3079,
      "##ument": 3080,
      "camp": 3081,
      "##xic": 3082,
      "pal": 3083,
      "effect": 3084,
      "##ner": 3085,
      "less": 3086,
      "low": 3087,
      "##hod": 3088,
      "film": 3089,
      "top": 3090,
      "black": 3091,
      "single": 3092,
      "civil": 3093,
      "##yal": 3094,
      "##ogn": 3095,
      "cat": 3096,
      "exist": 3097,
      "pred": 3098,
      "start": 3099,
      "##ield": 3100,
      "##bo": 3101,
      "believ": 3102,
      "kingdom": 3103,
      "created": 3104,
      "author": 3105,
      "somet": 3106,
      "study": 3107,
      "mag": 3108,
      "mult": 3109,
      "arg": 3110,
      "attack": 3111,
      "every": 3112,
      "bur": 3113,
      "tele": 3114,
      "##ological": 3115,
      "iss": 3116,
      "sov": 3117,
      "193": 3118,
      "##ove": 3119,
      "india": 3120,
      "##ull": 3121,
      "usually": 3122,
      "present": 3123,
      "signific": 3124,
      "architect": 3125,
      "soviet": 3126,
      "##ination": 3127,
      "report": 3128,
      "hand": 3129,
      "arr": 3130,
      "cy": 3131,
      "mount": 3132,
      "feat": 3133,
      "##loy": 3134,
      "struct": 3135,
      "2010": 3136,
      "built": 3137,
      "netw": 3138,
      "##uted": 3139,
      "span": 3140,
      "##ged": 3141,
      "bud": 3142,
      "que": 3143,
      "line": 3144,
      "education": 3145,
      "##dle": 3146,
      "##ren": 3147,
      "bir": 3148,
      "sal": 3149,
      "book": 3150,
      "##ley": 3151,
      "##acy": 3152,
      "see": 3153,
      "languages": 3154,
      "religious": 3155,
      "##gress": 3156,
      "##by": 3157,
      "##ional": 3158,
      "##rip": 3159,
      "natural": 3160,
      "##ability": 3161,
      "fig": 3162,
      "sty": 3163,
      "free": 3164,
      "test": 3165,
      "former": 3166,
      "method": 3167,
      "nov": 3168,
      "various": 3169,
      "##ling": 3170,
      "##ane": 3171,
      "capital": 3172,
      "service": 3173,
      "##uts": 3174,
      "##imes": 3175,
      "##tal": 3176,
      "separ": 3177,
      "aver": 3178,
      "mot": 3179,
      "init": 3180,
      "middle": 3181,
      "text": 3182,
      "fur": 3183,
      "force": 3184,
      "##omen": 3185,
      "sun": 3186,
      "##ograph": 3187,
      "po": 3188,
      "post": 3189,
      "191": 3190,
      "##rict": 3191,
      "##ask": 3192,
      "gener": 3193,
      "know": 3194,
      "alb": 3195,
      "sour": 3196,
      "turn": 3197,
      "age": 3198,
      "philos": 3199,
      "foot": 3200,
      "##ges": 3201,
      "##ivid": 3202,
      "hun": 3203,
      "##ai": 3204,
      "rule": 3205,
      "ital": 3206,
      "##tt": 3207,
      "domin": 3208,
      "territ": 3209,
      "significant": 3210,
      "##xim": 3211,
      "##ators": 3212,
      "broad": 3213,
      "schools": 3214,
      "##ne": 3215,
      "##hing": 3216,
      "mad": 3217,
      "real": 3218,
      "frequ": 3219,
      "##ark": 3220,
      "research": 3221,
      "##ential": 3222,
      "battle": 3223,
      "individ": 3224,
      "eastern": 3225,
      "bey": 3226,
      "##eign": 3227,
      "kind": 3228,
      "let": 3229,
      "eth": 3230,
      "##ify": 3231,
      "club": 3232,
      "25": 3233,
      "river": 3234,
      "earl": 3235,
      "comb": 3236,
      "without": 3237,
      "ra": 3238,
      "##irc": 3239,
      "team": 3240,
      "third": 3241,
      "dig": 3242,
      "dial": 3243,
      "ju": 3244,
      "rank": 3245,
      "canad": 3246,
      "##iness": 3247,
      "claim": 3248,
      "##ash": 3249,
      "##ime": 3250,
      "college": 3251,
      "mass": 3252,
      "culture": 3253,
      "individual": 3254,
      "england": 3255,
      "##cil": 3256,
      "##wards": 3257,
      "said": 3258,
      "sk": 3259,
      "involv": 3260,
      "##hern": 3261,
      "read": 3262,
      "polic": 3263,
      "ce": 3264,
      "mater": 3265,
      "##ops": 3266,
      "##cl": 3267,
      "bi": 3268,
      "proble": 3269,
      "vir": 3270,
      "##go": 3271,
      "repl": 3272,
      "##itive": 3273,
      "2013": 3274,
      "vers": 3275,
      "compet": 3276,
      "scient": 3277,
      "super": 3278,
      "further": 3279,
      "priv": 3280,
      "body": 3281,
      "##olic": 3282,
      "proper": 3283,
      "royal": 3284,
      "dest": 3285,
      "northern": 3286,
      "britain": 3287,
      "##ple": 3288,
      "fac": 3289,
      "##rael": 3290,
      "phys": 3291,
      "return": 3292,
      "##istr": 3293,
      "##akes": 3294,
      "role": 3295,
      "hal": 3296,
      "information": 3297,
      "activ": 3298,
      "egy": 3299,
      "arab": 3300,
      "data": 3301,
      "total": 3302,
      "##ode": 3303,
      "2008": 3304,
      "egypt": 3305,
      "mor": 3306,
      "higher": 3307,
      "council": 3308,
      "esp": 3309,
      "five": 3310,
      "##iation": 3311,
      "##arch": 3312,
      "family": 3313,
      "best": 3314,
      "##ison": 3315,
      "##thern": 3316,
      "admin": 3317,
      "##mit": 3318,
      "sem": 3319,
      "2009": 3320,
      "##ches": 3321,
      "generally": 3322,
      "##ead": 3323,
      "##ma": 3324,
      "doc": 3325,
      "##ius": 3326,
      "##raft": 3327,
      "christian": 3328,
      "few": 3329,
      "song": 3330,
      "enter": 3331,
      "took": 3332,
      "rock": 3333,
      "vol": 3334,
      "##ring": 3335,
      "circ": 3336,
      "israel": 3337,
      "paris": 3338,
      "##ords": 3339,
      "plan": 3340,
      "released": 3341,
      "jud": 3342,
      "america": 3343,
      "dyn": 3344,
      "##ana": 3345,
      "southern": 3346,
      "current": 3347,
      "##ats": 3348,
      "expl": 3349,
      "##sc": 3350,
      "economic": 3351,
      "ang": 3352,
      "included": 3353,
      "##ron": 3354,
      "##app": 3355,
      "average": 3356,
      "bor": 3357,
      "my": 3358,
      "game": 3359,
      "prom": 3360,
      "should": 3361,
      "recogn": 3362,
      "month": 3363,
      "men": 3364,
      "tro": 3365,
      "short": 3366,
      "##ption": 3367,
      "queen": 3368,
      "anim": 3369,
      "express": 3370,
      "##dh": 3371,
      "##read": 3372,
      "thus": 3373,
      "point": 3374,
      "##ows": 3375,
      "children": 3376,
      "##ites": 3377,
      "special": 3378,
      "previous": 3379,
      "##ob": 3380,
      "must": 3381,
      "beh": 3382,
      "100": 3383,
      "you": 3384,
      "2007": 3385,
      "students": 3386,
      "vide": 3387,
      "2011": 3388,
      "sometimes": 3389,
      "192": 3390,
      "came": 3391,
      "cities": 3392,
      "##ece": 3393,
      "park": 3394,
      "##ored": 3395,
      "town": 3396,
      "constitution": 3397,
      "aug": 3398,
      "##int": 3399,
      "street": 3400,
      "named": 3401,
      "san": 3402,
      "##bor": 3403,
      "case": 3404,
      "wind": 3405,
      "##ruction": 3406,
      "ke": 3407,
      "mexic": 3408,
      "##ification": 3409,
      "emb": 3410,
      "##ests": 3411,
      "others": 3412,
      "produced": 3413,
      "redu": 3414,
      "indust": 3415,
      "##sh": 3416,
      "##utions": 3417,
      "market": 3418,
      "material": 3419,
      "lay": 3420,
      "exec": 3421,
      "##ental": 3422,
      "germany": 3423,
      "##ript": 3424,
      "rich": 3425,
      "pap": 3426,
      "2012": 3427,
      "transl": 3428,
      "say": 3429,
      "agre": 3430,
      "terms": 3431,
      "host": 3432,
      "##me": 3433,
      "avail": 3434,
      "##ested": 3435,
      "##iﬁ": 3436,
      "change": 3437,
      "summ": 3438,
      "syn": 3439,
      "2014": 3440,
      "##iest": 3441,
      "attem": 3442,
      "lear": 3443,
      "theory": 3444,
      "##antic": 3445,
      "founded": 3446,
      "tib": 3447,
      "depart": 3448,
      "pa": 3449,
      "##aces": 3450,
      "regard": 3451,
      "list": 3452,
      "##aged": 3453,
      "estim": 3454,
      "strong": 3455,
      "geor": 3456,
      "highest": 3457,
      "##bour": 3458,
      "portug": 3459,
      "temper": 3460,
      "cath": 3461,
      "ver": 3462,
      "good": 3463,
      "mal": 3464,
      "##uter": 3465,
      "##etic": 3466,
      "##ances": 3467,
      "introduc": 3468,
      "command": 3469,
      "citation": 3470,
      "business": 3471,
      "##anu": 3472,
      "##ither": 3473,
      "dut": 3474,
      "kill": 3475,
      "sex": 3476,
      "revolution": 3477,
      "tur": 3478,
      "##aff": 3479,
      "training": 3480,
      "quest": 3481,
      "liter": 3482,
      "percentage": 3483,
      "football": 3484,
      "den": 3485,
      "##lam": 3486,
      "cond": 3487,
      "sold": 3488,
      "##uments": 3489,
      "##ably": 3490,
      "cell": 3491,
      "##ipp": 3492,
      "neg": 3493,
      "sept": 3494,
      "##ocr": 3495,
      "buddh": 3496,
      "rate": 3497,
      "##ched": 3498,
      "##pr": 3499,
      "colon": 3500,
      "mel": 3501,
      "##oles": 3502,
      "parts": 3503,
      "##enced": 3504,
      "treaty": 3505,
      "##ps": 3506,
      "bal": 3507,
      "##ateg": 3508,
      "mer": 3509,
      "emper": 3510,
      "african": 3511,
      "sequ": 3512,
      "austral": 3513,
      "live": 3514,
      "##co": 3515,
      "norm": 3516,
      "formed": 3517,
      "women": 3518,
      "left": 3519,
      "depend": 3520,
      "rights": 3521,
      "offer": 3522,
      "tibet": 3523,
      "squ": 3524,
      "anal": 3525,
      "network": 3526,
      "##ector": 3527,
      "##bert": 3528,
      "food": 3529,
      "meas": 3530,
      "cert": 3531,
      "foc": 3532,
      "##ingu": 3533,
      "profess": 3534,
      "science": 3535,
      "russian": 3536,
      "##ength": 3537,
      "victor": 3538,
      "##ae": 3539,
      "uk": 3540,
      "album": 3541,
      "ott": 3542,
      "cost": 3543,
      "ep": 3544,
      "hard": 3545,
      "rather": 3546,
      "majority": 3547,
      "##gen": 3548,
      "muse": 3549,
      "games": 3550,
      "##ex": 3551,
      "##lear": 3552,
      "deb": 3553,
      "earth": 3554,
      "##less": 3555,
      "##ban": 3556,
      "princ": 3557,
      "espec": 3558,
      "##aries": 3559,
      "march": 3560,
      "position": 3561,
      "especially": 3562,
      "bc": 3563,
      "reform": 3564,
      "administr": 3565,
      "##tain": 3566,
      "cultural": 3567,
      "oct": 3568,
      "##ves": 3569,
      "production": 3570,
      "pain": 3571,
      "##asing": 3572,
      "dog": 3573,
      "sea": 3574,
      "works": 3575,
      "rail": 3576,
      "throughout": 3577,
      "respons": 3578,
      "##idence": 3579,
      "aud": 3580,
      "mic": 3581,
      "##aken": 3582,
      "cover": 3583,
      "range": 3584,
      "##lim": 3585,
      "##ote": 3586,
      "september": 3587,
      "der": 3588,
      "green": 3589,
      "won": 3590,
      "today": 3591,
      "nap": 3592,
      "instead": 3593,
      "schol": 3594,
      "lower": 3595,
      "##aster": 3596,
      "meaning": 3597,
      "possible": 3598,
      "august": 3599,
      "field": 3600,
      "style": 3601,
      "six": 3602,
      "series": 3603,
      "fa": 3604,
      "minor": 3605,
      "traditional": 3606,
      "philosoph": 3607,
      "era": 3608,
      "ste": 3609,
      "employ": 3610,
      "influence": 3611,
      "published": 3612,
      "having": 3613,
      "##arily": 3614,
      "grad": 3615,
      "caused": 3616,
      "##osp": 3617,
      "armen": 3618,
      "available": 3619,
      "whose": 3620,
      "##uf": 3621,
      "##ware": 3622,
      "##ands": 3623,
      "19th": 3624,
      "announ": 3625,
      "sam": 3626,
      "2006": 3627,
      "30": 3628,
      "die": 3629,
      "loss": 3630,
      "color": 3631,
      "health": 3632,
      "june": 3633,
      "trade": 3634,
      "origin": 3635,
      "speak": 3636,
      "surv": 3637,
      "nav": 3638,
      "cross": 3639,
      "##ising": 3640,
      "##ox": 3641,
      "islam": 3642,
      "discover": 3643,
      "society": 3644,
      "introduced": 3645,
      "##sequ": 3646,
      "financ": 3647,
      "community": 3648,
      "obs": 3649,
      "##ones": 3650,
      "dynast": 3651,
      "sat": 3652,
      "##ids": 3653,
      "invest": 3654,
      "islands": 3655,
      "concept": 3656,
      "ok": 3657,
      "##ements": 3658,
      "press": 3659,
      "trib": 3660,
      "forms": 3661,
      "movement": 3662,
      "date": 3663,
      "laun": 3664,
      "emperor": 3665,
      "##ret": 3666,
      "space": 3667,
      "adop": 3668,
      "spanish": 3669,
      "ethn": 3670,
      "tour": 3671,
      "written": 3672,
      "get": 3673,
      "tar": 3674,
      "associated": 3675,
      "slav": 3676,
      "log": 3677,
      "foreign": 3678,
      "continued": 3679,
      "ach": 3680,
      "fail": 3681,
      "##ken": 3682,
      "relationship": 3683,
      "july": 3684,
      "##ered": 3685,
      "alg": 3686,
      "qual": 3687,
      "station": 3688,
      "japanese": 3689,
      "days": 3690,
      "bom": 3691,
      "mac": 3692,
      "##eal": 3693,
      "##apt": 3694,
      "heav": 3695,
      "office": 3696,
      "env": 3697,
      "janu": 3698,
      "january": 3699,
      "pen": 3700,
      "establish": 3701,
      "princip": 3702,
      "##rote": 3703,
      "sugg": 3704,
      "napole": 3705,
      "hear": 3706,
      "soft": 3707,
      "played": 3708,
      "##ways": 3709,
      "pun": 3710,
      "right": 3711,
      "next": 3712,
      "architecture": 3713,
      "di": 3714,
      "##cast": 3715,
      "ancient": 3716,
      "mos": 3717,
      "across": 3718,
      "provide": 3719,
      "##anted": 3720,
      "latin": 3721,
      "jews": 3722,
      "fall": 3723,
      "wrote": 3724,
      "##tic": 3725,
      "growth": 3726,
      "napoleon": 3727,
      "##oma": 3728,
      "##duct": 3729,
      "related": 3730,
      "hom": 3731,
      "increased": 3732,
      "nations": 3733,
      "##ores": 3734,
      "##hi": 3735,
      "im": 3736,
      "catholic": 3737,
      "##line": 3738,
      "##ober": 3739,
      "##ven": 3740,
      "##jects": 3741,
      "function": 3742,
      "africa": 3743,
      "improv": 3744,
      "##rought": 3745,
      "outs": 3746,
      "##alu": 3747,
      "##asser": 3748,
      "making": 3749,
      "october": 3750,
      "20th": 3751,
      "events": 3752,
      "##omp": 3753,
      "prior": 3754,
      "commit": 3755,
      "tor": 3756,
      "##vision": 3757,
      "self": 3758,
      "distin": 3759,
      "##once": 3760,
      "##ached": 3761,
      "applic": 3762,
      "organization": 3763,
      "determ": 3764,
      "particularly": 3765,
      "21": 3766,
      "##wer": 3767,
      "features": 3768,
      "museum": 3769,
      "cub": 3770,
      "join": 3771,
      "pot": 3772,
      "##most": 3773,
      "itself": 3774,
      "greece": 3775,
      "indian": 3776,
      "religion": 3777,
      "wood": 3778,
      "##sel": 3779,
      "thought": 3780,
      "either": 3781,
      "migr": 3782,
      "half": 3783,
      "cause": 3784,
      "defe": 3785,
      "increase": 3786,
      "##ble": 3787,
      "beyonce": 3788,
      "saw": 3789,
      "##ena": 3790,
      "2000": 3791,
      "##ensive": 3792,
      "muslim": 3793,
      "##yl": 3794,
      "allowed": 3795,
      "entire": 3796,
      "primary": 3797,
      "han": 3798,
      "might": 3799,
      "industry": 3800,
      "hous": 3801,
      "jewish": 3802,
      "nasser": 3803,
      "wid": 3804,
      "eston": 3805,
      "program": 3806,
      "##ril": 3807,
      "##estic": 3808,
      "certain": 3809,
      "2015": 3810,
      "##ii": 3811,
      "bell": 3812,
      "er": 3813,
      "private": 3814,
      "mand": 3815,
      "seen": 3816,
      "occup": 3817,
      "##hood": 3818,
      "pruss": 3819,
      "full": 3820,
      "come": 3821,
      "2005": 3822,
      "chop": 3823,
      "contrib": 3824,
      "##oy": 3825,
      "technology": 3826,
      "dynasty": 3827,
      "upon": 3828,
      "media": 3829,
      "financial": 3830,
      "km": 3831,
      "##owers": 3832,
      "neigh": 3833,
      "##ler": 3834,
      "##ought": 3835,
      "attempt": 3836,
      "wal": 3837,
      "##iers": 3838,
      "cho": 3839,
      "coast": 3840,
      "side": 3841,
      "parl": 3842,
      "grand": 3843,
      "accept": 3844,
      "democr": 3845,
      "okl": 3846,
      "##war": 3847,
      "##gre": 3848,
      "##imate": 3849,
      "department": 3850,
      "kore": 3851,
      "services": 3852,
      "##craft": 3853,
      "##ference": 3854,
      "records": 3855,
      "policy": 3856,
      "cro": 3857,
      "wr": 3858,
      "##erial": 3859,
      "##iron": 3860,
      "observ": 3861,
      "##ilities": 3862,
      "##ledge": 3863,
      "structure": 3864,
      "coll": 3865,
      "leader": 3866,
      "types": 3867,
      "typically": 3868,
      "24": 3869,
      "independent": 3870,
      "mach": 3871,
      "speech": 3872,
      "changes": 3873,
      "achiev": 3874,
      "##atory": 3875,
      "##eter": 3876,
      "##ape": 3877,
      "indic": 3878,
      "received": 3879,
      "radio": 3880,
      "chopin": 3881,
      "mexico": 3882,
      "bet": 3883,
      "don": 3884,
      "beginning": 3885,
      "plants": 3886,
      "##ike": 3887,
      "december": 3888,
      "minister": 3889,
      "ottoman": 3890,
      "##selves": 3891,
      "action": 3892,
      "##raw": 3893,
      "parliam": 3894,
      "commerc": 3895,
      "aircraft": 3896,
      "environ": 3897,
      "##ta": 3898,
      "##ctions": 3899,
      "laws": 3900,
      "our": 3901,
      "source": 3902,
      "dutch": 3903,
      "card": 3904,
      "clos": 3905,
      "access": 3906,
      "capt": 3907,
      "concern": 3908,
      "hot": 3909,
      "sound": 3910,
      "once": 3911,
      "themselves": 3912,
      "base": 3913,
      "video": 3914,
      "consist": 3915,
      "##aps": 3916,
      "means": 3917,
      "complex": 3918,
      "oklah": 3919,
      "ale": 3920,
      "##ica": 3921,
      "chap": 3922,
      "followed": 3923,
      "required": 3924,
      "iran": 3925,
      "bacter": 3926,
      "brought": 3927,
      "title": 3928,
      "##uries": 3929,
      "##aint": 3930,
      "##light": 3931,
      "never": 3932,
      "diff": 3933,
      "electric": 3934,
      "##lob": 3935,
      "contr": 3936,
      "gold": 3937,
      "ve": 3938,
      "##idge": 3939,
      "april": 3940,
      "described": 3941,
      "trav": 3942,
      "##ends": 3943,
      "instr": 3944,
      "##adem": 3945,
      "spok": 3946,
      "purp": 3947,
      "23": 3948,
      "##enue": 3949,
      "swit": 3950,
      "##ama": 3951,
      "asp": 3952,
      "reb": 3953,
      "big": 3954,
      "plant": 3955,
      "ps": 3956,
      "##for": 3957,
      "compan": 3958,
      "economy": 3959,
      "designed": 3960,
      "successful": 3961,
      "november": 3962,
      "manuf": 3963,
      "value": 3964,
      "##ults": 3965,
      "least": 3966,
      "district": 3967,
      "legal": 3968,
      "parliament": 3969,
      "##asion": 3970,
      "##asons": 3971,
      "##ecess": 3972,
      "oklahoma": 3973,
      "manufact": 3974,
      "bill": 3975,
      "nation": 3976,
      "##eration": 3977,
      "ib": 3978,
      "##stand": 3979,
      "abs": 3980,
      "studies": 3981,
      "television": 3982,
      "project": 3983,
      "capac": 3984,
      "increasing": 3985,
      "micro": 3986,
      "almost": 3987,
      "famous": 3988,
      "toget": 3989,
      "##uses": 3990,
      "above": 3991,
      "county": 3992,
      "feature": 3993,
      "referred": 3994,
      "together": 3995,
      "glob": 3996,
      "##ria": 3997,
      "able": 3998,
      "academ": 3999,
      "hyd": 4000,
      "##isl": 4001,
      "##ades": 4002,
      "fle": 4003,
      "rome": 4004,
      "##ston": 4005,
      "##oted": 4006,
      "computer": 4007,
      "commonly": 4008,
      "haven": 4009,
      "fem": 4010,
      "compon": 4011,
      "greater": 4012,
      "187": 4013,
      "knowledge": 4014,
      "ethnic": 4015,
      "native": 4016,
      "sn": 4017,
      "sen": 4018,
      "##hib": 4019,
      "##ented": 4020,
      "protest": 4021,
      "bank": 4022,
      "link": 4023,
      "viol": 4024,
      "##hers": 4025,
      "##oung": 4026,
      "defin": 4027,
      "cases": 4028,
      "##lin": 4029,
      "airport": 4030,
      "emer": 4031,
      "victoria": 4032,
      "connect": 4033,
      "40": 4034,
      "##ck": 4035,
      "william": 4036,
      "##ned": 4037,
      "##here": 4038,
      "##isc": 4039,
      "##ips": 4040,
      "outside": 4041,
      "young": 4042,
      "##bc": 4043,
      "##ending": 4044,
      "secret": 4045,
      "independence": 4046,
      "started": 4047,
      "du": 4048,
      "father": 4049,
      "status": 4050,
      "fest": 4051,
      "##outh": 4052,
      "meet": 4053,
      "fav": 4054,
      "elev": 4055,
      "subject": 4056,
      "target": 4057,
      "hap": 4058,
      "##uan": 4059,
      "models": 4060,
      "bene": 4061,
      "che": 4062,
      "mi": 4063,
      "dam": 4064,
      "##isen": 4065,
      "reason": 4066,
      "tax": 4067,
      "recent": 4068,
      "police": 4069,
      "regul": 4070,
      "approxim": 4071,
      "territory": 4072,
      "award": 4073,
      "living": 4074,
      "rom": 4075,
      "##head": 4076,
      "190": 4077,
      "member": 4078,
      "past": 4079,
      "examples": 4080,
      "miss": 4081,
      "##onom": 4082,
      "desp": 4083,
      "square": 4084,
      "##add": 4085,
      "except": 4086,
      "##que": 4087,
      "road": 4088,
      "prec": 4089,
      "leaders": 4090,
      "##ya": 4091,
      "engine": 4092,
      "##echan": 4093,
      "##ique": 4094,
      "##ried": 4095,
      "manag": 4096,
      "universities": 4097,
      "50": 4098,
      "sil": 4099,
      "produce": 4100,
      "communic": 4101,
      "legisl": 4102,
      "##lement": 4103,
      "##osition": 4104,
      "##utes": 4105,
      "consum": 4106,
      "imperial": 4107,
      "subst": 4108,
      "object": 4109,
      "question": 4110,
      "hour": 4111,
      "asia": 4112,
      "amount": 4113,
      "board": 4114,
      "respect": 4115,
      "buildings": 4116,
      "race": 4117,
      "##orith": 4118,
      "scientific": 4119,
      "george": 4120,
      "algorith": 4121,
      "##omm": 4122,
      "##iding": 4123,
      "leading": 4124,
      "environment": 4125,
      "##lt": 4126,
      "##lied": 4127,
      "congress": 4128,
      "##ression": 4129,
      "construction": 4130,
      "somal": 4131,
      "canada": 4132,
      "sit": 4133,
      "size": 4134,
      "visit": 4135,
      "##zer": 4136,
      "input": 4137,
      "centuries": 4138,
      "birds": 4139,
      "troops": 4140,
      "commercial": 4141,
      "bost": 4142,
      "provided": 4143,
      "multip": 4144,
      "billion": 4145,
      "##anch": 4146,
      "whom": 4147,
      "##oms": 4148,
      "##ises": 4149,
      "prin": 4150,
      "citiz": 4151,
      "document": 4152,
      "gal": 4153,
      "includes": 4154,
      "speed": 4155,
      "scholars": 4156,
      "fire": 4157,
      "##ott": 4158,
      "create": 4159,
      "##ering": 4160,
      "conflic": 4161,
      "announced": 4162,
      "mechan": 4163,
      "22": 4164,
      "##erry": 4165,
      "despite": 4166,
      "##iction": 4167,
      "classical": 4168,
      "distrib": 4169,
      "cens": 4170,
      "rout": 4171,
      "##gar": 4172,
      "prem": 4173,
      "sexual": 4174,
      "mo": 4175,
      "ten": 4176,
      "##rug": 4177,
      "companies": 4178,
      "fort": 4179,
      "##ude": 4180,
      "care": 4181,
      "##eks": 4182,
      "##roy": 4183,
      "##ceed": 4184,
      "chief": 4185,
      "orth": 4186,
      "uses": 4187,
      "windows": 4188,
      "vo": 4189,
      "emot": 4190,
      "critic": 4191,
      "champ": 4192,
      "##ona": 4193,
      "reserv": 4194,
      "regions": 4195,
      "election": 4196,
      "bron": 4197,
      "division": 4198,
      "label": 4199,
      "symb": 4200,
      "##porary": 4201,
      "band": 4202,
      "born": 4203,
      "##jing": 4204,
      "tex": 4205,
      "philosophy": 4206,
      "##iate": 4207,
      "##augh": 4208,
      "output": 4209,
      "turk": 4210,
      "boston": 4211,
      "##ext": 4212,
      "elements": 4213,
      "secur": 4214,
      "powers": 4215,
      "##ots": 4216,
      "##semb": 4217,
      "wars": 4218,
      "corre": 4219,
      "##ve": 4220,
      "##erous": 4221,
      "##atives": 4222,
      "##istan": 4223,
      "##ality": 4224,
      "specific": 4225,
      "##den": 4226,
      "##onna": 4227,
      "##acters": 4228,
      "respon": 4229,
      "sequence": 4230,
      "wat": 4231,
      "##bru": 4232,
      "##eria": 4233,
      "supre": 4234,
      "encod": 4235,
      "association": 4236,
      "seat": 4237,
      "solar": 4238,
      "bit": 4239,
      "wall": 4240,
      "characters": 4241,
      "sens": 4242,
      "carol": 4243,
      "little": 4244,
      "son": 4245,
      "conduct": 4246,
      "expand": 4247,
      "settle": 4248,
      "larger": 4249,
      "particip": 4250,
      "cup": 4251,
      "gro": 4252,
      "##aign": 4253,
      "fri": 4254,
      "lost": 4255,
      "##omin": 4256,
      "##idents": 4257,
      "evidence": 4258,
      "ground": 4259,
      "##ounds": 4260,
      "remained": 4261,
      "500": 4262,
      "##eth": 4263,
      "historical": 4264,
      "give": 4265,
      "context": 4266,
      "americans": 4267,
      "campaign": 4268,
      "reported": 4269,
      "widely": 4270,
      "##utive": 4271,
      "hall": 4272,
      "pay": 4273,
      "##face": 4274,
      "##let": 4275,
      "##urg": 4276,
      "##iment": 4277,
      "close": 4278,
      "resist": 4279,
      "doct": 4280,
      "2004": 4281,
      "eventually": 4282,
      "suf": 4283,
      "##istics": 4284,
      "elected": 4285,
      "whether": 4286,
      "regular": 4287,
      "transport": 4288,
      "originally": 4289,
      "replaced": 4290,
      "ban": 4291,
      "##itor": 4292,
      "186": 4293,
      "working": 4294,
      "bra": 4295,
      "mary": 4296,
      "sense": 4297,
      "##icult": 4298,
      "##dings": 4299,
      "release": 4300,
      "version": 4301,
      "put": 4302,
      "saint": 4303,
      "##nal": 4304,
      "##atively": 4305,
      "week": 4306,
      "account": 4307,
      "passed": 4308,
      "rap": 4309,
      "taken": 4310,
      "altern": 4311,
      "australia": 4312,
      "eisen": 4313,
      "happen": 4314,
      "febru": 4315,
      "february": 4316,
      "madonna": 4317,
      "categ": 4318,
      "section": 4319,
      "deal": 4320,
      "##ift": 4321,
      "185": 4322,
      "28": 4323,
      "ess": 4324,
      "lack": 4325,
      "##ying": 4326,
      "##we": 4327,
      "becom": 4328,
      "demon": 4329,
      "urban": 4330,
      "problem": 4331,
      "destroy": 4332,
      "26": 4333,
      "corpor": 4334,
      "cele": 4335,
      "##ham": 4336,
      "##berg": 4337,
      "sett": 4338,
      "discuss": 4339,
      "chem": 4340,
      "##mar": 4341,
      "constant": 4342,
      "require": 4343,
      "voc": 4344,
      "anth": 4345,
      "washing": 4346,
      "franc": 4347,
      "peace": 4348,
      "institute": 4349,
      "fund": 4350,
      "##onic": 4351,
      "##isms": 4352,
      "assum": 4353,
      "likely": 4354,
      "benef": 4355,
      "limited": 4356,
      "believe": 4357,
      "gave": 4358,
      "universal": 4359,
      "mill": 4360,
      "site": 4361,
      "mostly": 4362,
      "practice": 4363,
      "focus": 4364,
      "eisenh": 4365,
      "spread": 4366,
      "contem": 4367,
      "conserv": 4368,
      "money": 4369,
      "idol": 4370,
      "anten": 4371,
      "atl": 4372,
      "displ": 4373,
      "operations": 4374,
      "italian": 4375,
      "involved": 4376,
      "approximately": 4377,
      "eisenhower": 4378,
      "von": 4379,
      "##oks": 4380,
      "sentence": 4381,
      "##rew": 4382,
      "##ula": 4383,
      "prime": 4384,
      "pattern": 4385,
      "believed": 4386,
      "embed": 4387,
      "demonstr": 4388,
      "bul": 4389,
      "cast": 4390,
      "ill": 4391,
      "oil": 4392,
      "##isions": 4393,
      "think": 4394,
      "apple": 4395,
      "approach": 4396,
      "mother": 4397,
      "##ties": 4398,
      "front": 4399,
      "response": 4400,
      "rise": 4401,
      "task": 4402,
      "##action": 4403,
      "mont": 4404,
      "separate": 4405,
      "estimated": 4406,
      "summer": 4407,
      "lou": 4408,
      "nature": 4409,
      "##ios": 4410,
      "famil": 4411,
      "##airs": 4412,
      "##reat": 4413,
      "medical": 4414,
      "##aur": 4415,
      "##ych": 4416,
      "conqu": 4417,
      "unit": 4418,
      "dar": 4419,
      "##ara": 4420,
      "libr": 4421,
      "earlier": 4422,
      "paper": 4423,
      "ply": 4424,
      "sell": 4425,
      "##uation": 4426,
      "##iated": 4427,
      "dise": 4428,
      "product": 4429,
      "alex": 4430,
      "hit": 4431,
      "##ror": 4432,
      "##ha": 4433,
      "##ened": 4434,
      "dou": 4435,
      "ord": 4436,
      "centre": 4437,
      "hydro": 4438,
      "hold": 4439,
      "##mouth": 4440,
      "##ays": 4441,
      "flor": 4442,
      "difficult": 4443,
      "washington": 4444,
      "key": 4445,
      "mix": 4446,
      "assemb": 4447,
      "188": 4448,
      "idea": 4449,
      "kh": 4450,
      "##to": 4451,
      "##uit": 4452,
      "stop": 4453,
      "##pton": 4454,
      "ancest": 4455,
      "##iences": 4456,
      "step": 4457,
      "incor": 4458,
      "##encies": 4459,
      "northw": 4460,
      "directly": 4461,
      "industr": 4462,
      "supreme": 4463,
      "code": 4464,
      "conver": 4465,
      "numbers": 4466,
      "annual": 4467,
      "op": 4468,
      "poin": 4469,
      "phot": 4470,
      "authority": 4471,
      "paul": 4472,
      "celebr": 4473,
      "27": 4474,
      "fut": 4475,
      "notable": 4476,
      "189": 4477,
      "acqu": 4478,
      "animals": 4479,
      "temperature": 4480,
      "global": 4481,
      "rac": 4482,
      "##ires": 4483,
      "primarily": 4484,
      "ire": 4485,
      "tu": 4486,
      "died": 4487,
      "artic": 4488,
      "moved": 4489,
      "industrial": 4490,
      "##town": 4491,
      "##odox": 4492,
      "interest": 4493,
      "longer": 4494,
      "##leg": 4495,
      "teams": 4496,
      "influenced": 4497,
      "software": 4498,
      "##itan": 4499,
      "churches": 4500,
      "shows": 4501,
      "regional": 4502,
      "russia": 4503,
      "problems": 4504,
      "border": 4505,
      "better": 4506,
      "ireland": 4507,
      "commission": 4508,
      "understand": 4509,
      "agreement": 4510,
      "responsible": 4511,
      "hen": 4512,
      "necess": 4513,
      "##cel": 4514,
      "##ems": 4515,
      "citizens": 4516,
      "security": 4517,
      "ec": 4518,
      "thous": 4519,
      "served": 4520,
      "islamic": 4521,
      "subsequ": 4522,
      "gadd": 4523,
      "learning": 4524,
      "##win": 4525,
      "##ampton": 4526,
      "added": 4527,
      "earliest": 4528,
      "nan": 4529,
      "##med": 4530,
      "smaller": 4531,
      "opened": 4532,
      "levels": 4533,
      "cann": 4534,
      "domestic": 4535,
      "##afi": 4536,
      "distinct": 4537,
      "eight": 4538,
      "opt": 4539,
      "spect": 4540,
      "inte": 4541,
      "183": 4542,
      "killed": 4543,
      "orthodox": 4544,
      "##itation": 4545,
      "exc": 4546,
      "##resp": 4547,
      "variety": 4548,
      "fight": 4549,
      "mention": 4550,
      "tal": 4551,
      "##mer": 4552,
      "##yr": 4553,
      "sports": 4554,
      "collect": 4555,
      "ip": 4556,
      "oly": 4557,
      "inn": 4558,
      "italy": 4559,
      "census": 4560,
      "olymp": 4561,
      "cred": 4562,
      "store": 4563,
      "classiﬁ": 4564,
      "glass": 4565,
      "adopted": 4566,
      "quality": 4567,
      "ber": 4568,
      "lin": 4569,
      "##ming": 4570,
      "##ibility": 4571,
      "personal": 4572,
      "catal": 4573,
      "cust": 4574,
      "##pts": 4575,
      "##wood": 4576,
      "active": 4577,
      "supported": 4578,
      "neighbor": 4579,
      "length": 4580,
      "##wide": 4581,
      "##ago": 4582,
      "climate": 4583,
      "gramm": 4584,
      "##ender": 4585,
      "behav": 4586,
      "carolina": 4587,
      "night": 4588,
      "seven": 4589,
      "performance": 4590,
      "travel": 4591,
      "cand": 4592,
      "lines": 4593,
      "pet": 4594,
      "ans": 4595,
      "institutions": 4596,
      "kerry": 4597,
      "lu": 4598,
      "compar": 4599,
      "colum": 4600,
      "physical": 4601,
      "administration": 4602,
      "nig": 4603,
      "##the": 4604,
      "##uel": 4605,
      "reached": 4606,
      "##iang": 4607,
      "2003": 4608,
      "remov": 4609,
      "nearly": 4610,
      "vill": 4611,
      "##ging": 4612,
      "fif": 4613,
      "ut": 4614,
      "promin": 4615,
      "remain": 4616,
      "humans": 4617,
      "oldest": 4618,
      "gaddafi": 4619,
      "true": 4620,
      "southampton": 4621,
      "anti": 4622,
      "36": 4623,
      "dim": 4624,
      "##rain": 4625,
      "charles": 4626,
      "move": 4627,
      "labour": 4628,
      "digital": 4629,
      "away": 4630,
      "clear": 4631,
      "jour": 4632,
      "names": 4633,
      "ox": 4634,
      "ult": 4635,
      "##hol": 4636,
      "orient": 4637,
      "##ung": 4638,
      "arts": 4639,
      "governor": 4640,
      "##bourne": 4641,
      "plymouth": 4642,
      "hill": 4643,
      "vac": 4644,
      "reach": 4645,
      "news": 4646,
      "entity": 4647,
      "machine": 4648,
      "went": 4649,
      "##cul": 4650,
      "mosa": 4651,
      "##iot": 4652,
      "abb": 4653,
      "agric": 4654,
      "nob": 4655,
      "largely": 4656,
      "experience": 4657,
      "introdu": 4658,
      "too": 4659,
      "##unic": 4660,
      "interpre": 4661,
      "alexand": 4662,
      "pan": 4663,
      "wit": 4664,
      "##igen": 4665,
      "agricult": 4666,
      "##heast": 4667,
      "##abit": 4668,
      "##usion": 4669,
      "corresp": 4670,
      "bacteria": 4671,
      "future": 4672,
      "##50": 4673,
      "shown": 4674,
      "pope": 4675,
      "blue": 4676,
      "##anned": 4677,
      "literature": 4678,
      "lingu": 4679,
      "compared": 4680,
      "contain": 4681,
      "resour": 4682,
      "declared": 4683,
      "atlantic": 4684,
      "##gn": 4685,
      "##ope": 4686,
      "break": 4687,
      "portugal": 4688,
      "champions": 4689,
      "##ino": 4690,
      "##tered": 4691,
      "rules": 4692,
      "ranked": 4693,
      "dogs": 4694,
      "bomb": 4695,
      "##ida": 4696,
      "##olved": 4697,
      "issue": 4698,
      "broadcast": 4699,
      "##bi": 4700,
      "divided": 4701,
      "copper": 4702,
      "birth": 4703,
      "gun": 4704,
      "##roit": 4705,
      "parties": 4706,
      "attract": 4707,
      "defined": 4708,
      "keep": 4709,
      "suffer": 4710,
      "nuc": 4711,
      "##ze": 4712,
      "##ols": 4713,
      "months": 4714,
      "melbourne": 4715,
      "lived": 4716,
      "##be": 4717,
      "##att": 4718,
      "##izing": 4719,
      "transform": 4720,
      "saf": 4721,
      "##has": 4722,
      "insp": 4723,
      "towards": 4724,
      "detroit": 4725,
      "hon": 4726,
      "oce": 4727,
      "##ym": 4728,
      "forced": 4729,
      "recording": 4730,
      "scale": 4731,
      "teach": 4732,
      "brain": 4733,
      "simple": 4734,
      "helped": 4735,
      "##tr": 4736,
      "formal": 4737,
      "maint": 4738,
      "mainly": 4739,
      "negative": 4740,
      "rapid": 4741,
      "##ners": 4742,
      "reject": 4743,
      "always": 4744,
      "artists": 4745,
      "immigr": 4746,
      "figure": 4747,
      "cam": 4748,
      "##olk": 4749,
      "applied": 4750,
      "basic": 4751,
      "bay": 4752,
      "jur": 4753,
      "##atures": 4754,
      "##icient": 4755,
      "track": 4756,
      "marsh": 4757,
      "assign": 4758,
      "match": 4759,
      "proposed": 4760,
      "layer": 4761,
      "ath": 4762,
      "dell": 4763,
      "drug": 4764,
      "tree": 4765,
      "##ogue": 4766,
      "therefore": 4767,
      "currently": 4768,
      "methods": 4769,
      "discovered": 4770,
      "spoken": 4771,
      "contemporary": 4772,
      "jes": 4773,
      "##yc": 4774,
      "theat": 4775,
      "##enth": 4776,
      "stations": 4777,
      "review": 4778,
      "##ieval": 4779,
      "magn": 4780,
      "##bon": 4781,
      "adoles": 4782,
      "serve": 4783,
      "houston": 4784,
      "conflict": 4785,
      "dav": 4786,
      "tag": 4787,
      "wide": 4788,
      "##aving": 4789,
      "note": 4790,
      "extre": 4791,
      "programm": 4792,
      "uran": 4793,
      "minority": 4794,
      "chapter": 4795,
      "purpose": 4796,
      "cot": 4797,
      "dip": 4798,
      "james": 4799,
      "yale": 4800,
      "##self": 4801,
      "sele": 4802,
      "province": 4803,
      "internet": 4804,
      "occurred": 4805,
      "palace": 4806,
      "portugues": 4807,
      "cru": 4808,
      "##20": 4809,
      "##ament": 4810,
      "ages": 4811,
      "evolution": 4812,
      "communities": 4813,
      "values": 4814,
      "convers": 4815,
      "recorded": 4816,
      "mountain": 4817,
      "ball": 4818,
      "las": 4819,
      "makes": 4820,
      "format": 4821,
      "threat": 4822,
      "select": 4823,
      "transfer": 4824,
      "probability": 4825,
      "resulting": 4826,
      "hay": 4827,
      "pac": 4828,
      "##omet": 4829,
      "ash": 4830,
      "##anced": 4831,
      "else": 4832,
      "goal": 4833,
      "describe": 4834,
      "ren": 4835,
      "units": 4836,
      "spain": 4837,
      "assist": 4838,
      "look": 4839,
      "canadian": 4840,
      "bes": 4841,
      "##lying": 4842,
      "positive": 4843,
      "writing": 4844,
      "##gger": 4845,
      "portuguese": 4846,
      "##mond": 4847,
      "##ayed": 4848,
      "##izations": 4849,
      "signed": 4850,
      "changed": 4851,
      "rh": 4852,
      "rang": 4853,
      "##sen": 4854,
      "##see": 4855,
      "contains": 4856,
      "initially": 4857,
      "anthrop": 4858,
      "##inary": 4859,
      "stad": 4860,
      "shar": 4861,
      "newsp": 4862,
      "appoin": 4863,
      "belief": 4864,
      "committe": 4865,
      "core": 4866,
      "want": 4867,
      "schwar": 4868,
      "remains": 4869,
      "products": 4870,
      "frequency": 4871,
      "activity": 4872,
      "newspap": 4873,
      "via": 4874,
      "##ca": 4875,
      "##iance": 4876,
      "electr": 4877,
      "continu": 4878,
      "counter": 4879,
      "mountains": 4880,
      "##rst": 4881,
      "comput": 4882,
      "location": 4883,
      "schwarz": 4884,
      "cod": 4885,
      "##ee": 4886,
      "corp": 4887,
      "quant": 4888,
      "operation": 4889,
      "previously": 4890,
      "cardinal": 4891,
      "psych": 4892,
      "multiple": 4893,
      "stated": 4894,
      "electron": 4895,
      "brother": 4896,
      "executive": 4897,
      "kil": 4898,
      "°c": 4899,
      "##isis": 4900,
      "##aves": 4901,
      "2001": 4902,
      "belong": 4903,
      "##enegger": 4904,
      "cotton": 4905,
      "schwarzenegger": 4906,
      "rat": 4907,
      "ﬁrst": 4908,
      "##ster": 4909,
      "share": 4910,
      "##azi": 4911,
      "find": 4912,
      "##quar": 4913,
      "indigen": 4914,
      "direction": 4915,
      "finally": 4916,
      "analys": 4917,
      "##orks": 4918,
      "monarch": 4919,
      "metrop": 4920,
      "below": 4921,
      "officially": 4922,
      "purch": 4923,
      "identity": 4924,
      "female": 4925,
      "antenna": 4926,
      "mission": 4927,
      "##hel": 4928,
      "chann": 4929,
      "184": 4930,
      "players": 4931,
      "matter": 4932,
      "motor": 4933,
      "potential": 4934,
      "wrest": 4935,
      "indigenous": 4936,
      "fred": 4937,
      "festival": 4938,
      "incorpor": 4939,
      "cou": 4940,
      "##lers": 4941,
      "element": 4942,
      "soon": 4943,
      "prevent": 4944,
      "labor": 4945,
      "devices": 4946,
      "launched": 4947,
      "heart": 4948,
      "library": 4949,
      "tenn": 4950,
      "##iter": 4951,
      "weight": 4952,
      "construct": 4953,
      "convention": 4954,
      "campus": 4955,
      "virgin": 4956,
      "hosp": 4957,
      "net": 4958,
      "pit": 4959,
      "##oid": 4960,
      "pron": 4961,
      "##ards": 4962,
      "##ension": 4963,
      "bound": 4964,
      "gas": 4965,
      "##ining": 4966,
      "inh": 4967,
      "##isk": 4968,
      "##ille": 4969,
      "himself": 4970,
      "ideas": 4971,
      "switzer": 4972,
      "lic": 4973,
      "ability": 4974,
      "decre": 4975,
      "expans": 4976,
      "maxim": 4977,
      "thom": 4978,
      "18th": 4979,
      "##ressed": 4980,
      "numerous": 4981,
      "crisis": 4982,
      "sources": 4983,
      "qur": 4984,
      "implement": 4985,
      "programs": 4986,
      "##hu": 4987,
      "##olitan": 4988,
      "invasion": 4989,
      "ended": 4990,
      "magaz": 4991,
      "poor": 4992,
      "professional": 4993,
      "torch": 4994,
      "ll": 4995,
      "residents": 4996,
      "##ube": 4997,
      "switzerland": 4998,
      "phon": 4999,
      "resulted": 5000,
      "candid": 5001,
      "highly": 5002,
      "contrast": 5003,
      "freed": 5004,
      "downtown": 5005,
      "receive": 5006,
      "##of": 5007,
      "##arr": 5008,
      "##rupt": 5009,
      "defence": 5010,
      "liberal": 5011,
      "audio": 5012,
      "bapt": 5013,
      "##nd": 5014,
      "##astic": 5015,
      "deg": 5016,
      "2002": 5017,
      "provides": 5018,
      "medic": 5019,
      "speaking": 5020,
      "uranium": 5021,
      "zinc": 5022,
      "mathem": 5023,
      "eliz": 5024,
      "headquar": 5025,
      "individuals": 5026,
      "translation": 5027,
      "estonia": 5028,
      "premier": 5029,
      "henry": 5030,
      "rain": 5031,
      "ways": 5032,
      "property": 5033,
      "path": 5034,
      "##ulation": 5035,
      "spir": 5036,
      "##lands": 5037,
      "conditions": 5038,
      "##lav": 5039,
      "unc": 5040,
      "prince": 5041,
      "reflect": 5042,
      "delhi": 5043,
      "sac": 5044,
      "tend": 5045,
      "##hou": 5046,
      "##amb": 5047,
      "reign": 5048,
      "##ective": 5049,
      "##ellig": 5050,
      "frame": 5051,
      "##ields": 5052,
      "starting": 5053,
      "chemical": 5054,
      "nanjing": 5055,
      "ipod": 5056,
      "stadium": 5057,
      "60": 5058,
      "cab": 5059,
      "mut": 5060,
      "##itude": 5061,
      "##elled": 5062,
      "student": 5063,
      "miles": 5064,
      "seattle": 5065,
      "cannot": 5066,
      "ocean": 5067,
      "cas": 5068,
      "coin": 5069,
      "hund": 5070,
      "##oor": 5071,
      "ther": 5072,
      "ask": 5073,
      "##oses": 5074,
      "content": 5075,
      "discour": 5076,
      "additional": 5077,
      "dialect": 5078,
      "measure": 5079,
      "families": 5080,
      "darwin": 5081,
      "degree": 5082,
      "##ford": 5083,
      "##aded": 5084,
      "unl": 5085,
      "granted": 5086,
      "quick": 5087,
      "done": 5088,
      "relatively": 5089,
      "issues": 5090,
      "##ready": 5091,
      "soldiers": 5092,
      "korea": 5093,
      "cer": 5094,
      "sout": 5095,
      "##isation": 5096,
      "plat": 5097,
      "worldwide": 5098,
      "heavy": 5099,
      "definition": 5100,
      "hours": 5101,
      "##mission": 5102,
      "already": 5103,
      "minim": 5104,
      "##iami": 5105,
      "approv": 5106,
      "hundred": 5107,
      "beer": 5108,
      "phr": 5109,
      "surface": 5110,
      "cypr": 5111,
      "animal": 5112,
      "kar": 5113,
      "##rian": 5114,
      "amb": 5115,
      "valenc": 5116,
      "hell": 5117,
      "##ls": 5118,
      "sentences": 5119,
      "letter": 5120,
      "##greg": 5121,
      "##men": 5122,
      "##ita": 5123,
      "##ulf": 5124,
      "represented": 5125,
      "louis": 5126,
      "sus": 5127,
      "##ero": 5128,
      "##aches": 5129,
      "usb": 5130,
      "foundation": 5131,
      "representation": 5132,
      "bronx": 5133,
      "##abad": 5134,
      "results": 5135,
      "transition": 5136,
      "simp": 5137,
      "complete": 5138,
      "competition": 5139,
      "°f": 5140,
      "##ney": 5141,
      "concent": 5142,
      "perman": 5143,
      "poly": 5144,
      "metal": 5145,
      "marked": 5146,
      "encour": 5147,
      "satell": 5148,
      "cut": 5149,
      "dail": 5150,
      "memory": 5151,
      "autom": 5152,
      "cells": 5153,
      "faith": 5154,
      "houses": 5155,
      "correct": 5156,
      "jesus": 5157,
      "miami": 5158,
      "samp": 5159,
      "##use": 5160,
      "##ici": 5161,
      "decade": 5162,
      "decision": 5163,
      "accomp": 5164,
      "investig": 5165,
      "expansion": 5166,
      "31": 5167,
      "foun": 5168,
      "##otes": 5169,
      "##ush": 5170,
      "feed": 5171,
      "iii": 5172,
      "mandol": 5173,
      "daily": 5174,
      "vote": 5175,
      "impact": 5176,
      "carry": 5177,
      "signal": 5178,
      "hydrogen": 5179,
      "assembly": 5180,
      "tuv": 5181,
      "concentr": 5182,
      "29": 5183,
      "dame": 5184,
      "wave": 5185,
      "##acts": 5186,
      "##amed": 5187,
      "valley": 5188,
      "controlled": 5189,
      "algorithm": 5190,
      "corpus": 5191,
      "metropolitan": 5192,
      "stage": 5193,
      "exhib": 5194,
      "diss": 5195,
      "disp": 5196,
      "attention": 5197,
      "medieval": 5198,
      "detail": 5199,
      "growing": 5200,
      "buddhism": 5201,
      "becoming": 5202,
      "##rim": 5203,
      "intellig": 5204,
      "complet": 5205,
      "behind": 5206,
      "integr": 5207,
      "80": 5208,
      "dna": 5209,
      "fell": 5210,
      "yet": 5211,
      "populations": 5212,
      "territories": 5213,
      "il": 5214,
      "user": 5215,
      "consists": 5216,
      "blood": 5217,
      "immed": 5218,
      "derived": 5219,
      "witness": 5220,
      "kin": 5221,
      "##ream": 5222,
      "progress": 5223,
      "##pper": 5224,
      "polish": 5225,
      "presence": 5226,
      "branch": 5227,
      "prominent": 5228,
      "hor": 5229,
      "mur": 5230,
      "##ivity": 5231,
      "subs": 5232,
      "books": 5233,
      "antib": 5234,
      "analysis": 5235,
      "aim": 5236,
      "creation": 5237,
      "differences": 5238,
      "avenue": 5239,
      "geograph": 5240,
      "allows": 5241,
      "performed": 5242,
      "normal": 5243,
      "##pa": 5244,
      "chic": 5245,
      "##ocks": 5246,
      "peak": 5247,
      "attrib": 5248,
      "quar": 5249,
      "winter": 5250,
      "diego": 5251,
      "45": 5252,
      "##ef": 5253,
      "staff": 5254,
      "genetic": 5255,
      "prefer": 5256,
      "distingu": 5257,
      "##hens": 5258,
      "claimed": 5259,
      "pc": 5260,
      "##ky": 5261,
      "continue": 5262,
      "insects": 5263,
      "florida": 5264,
      "committee": 5265,
      "pict": 5266,
      "wild": 5267,
      "##tin": 5268,
      "##oration": 5269,
      "script": 5270,
      "relation": 5271,
      "weap": 5272,
      "block": 5273,
      "##mitted": 5274,
      "reduced": 5275,
      "tuvalu": 5276,
      "##abeth": 5277,
      "notre": 5278,
      "income": 5279,
      "emphas": 5280,
      "musical": 5281,
      "dialects": 5282,
      "activities": 5283,
      "pacific": 5284,
      "appointed": 5285,
      "things": 5286,
      "##anye": 5287,
      "films": 5288,
      "ruled": 5289,
      "favor": 5290,
      "draw": 5291,
      "##fall": 5292,
      "whole": 5293,
      "adj": 5294,
      "jose": 5295,
      "vari": 5296,
      "collection": 5297,
      "basis": 5298,
      "generation": 5299,
      "tibetan": 5300,
      "##osing": 5301,
      "argued": 5302,
      "armenian": 5303,
      "defeated": 5304,
      "braz": 5305,
      "disease": 5306,
      "ming": 5307,
      "tun": 5308,
      "##ger": 5309,
      "decided": 5310,
      "classes": 5311,
      "movie": 5312,
      "lands": 5313,
      "owned": 5314,
      "decline": 5315,
      "richmond": 5316,
      "35": 5317,
      "32": 5318,
      "fourth": 5319,
      "latter": 5320,
      "tennes": 5321,
      "gall": 5322,
      "tv": 5323,
      "##arian": 5324,
      "##umann": 5325,
      "useful": 5326,
      "1990s": 5327,
      "hunting": 5328,
      "##ription": 5329,
      "texts": 5330,
      "kanye": 5331,
      "taking": 5332,
      "##lies": 5333,
      "##hedral": 5334,
      "##ieties": 5335,
      "advant": 5336,
      "irish": 5337,
      "hyp": 5338,
      "device": 5339,
      "answer": 5340,
      "thomas": 5341,
      "gather": 5342,
      "##uge": 5343,
      "arsen": 5344,
      "1980s": 5345,
      "apoll": 5346,
      "launch": 5347,
      "elizabeth": 5348,
      "##ias": 5349,
      "lee": 5350,
      "##ously": 5351,
      "songs": 5352,
      "components": 5353,
      "gard": 5354,
      "here": 5355,
      "lod": 5356,
      "story": 5357,
      "##derabad": 5358,
      "limit": 5359,
      "tennessee": 5360,
      "##bit": 5361,
      "asian": 5362,
      "chall": 5363,
      "frank": 5364,
      "diver": 5365,
      "critical": 5366,
      "attacks": 5367,
      "prussia": 5368,
      "protestant": 5369,
      "quran": 5370,
      "##inated": 5371,
      "deep": 5372,
      "exch": 5373,
      "genes": 5374,
      "presby": 5375,
      "effects": 5376,
      "jer": 5377,
      "possess": 5378,
      "sales": 5379,
      "##ads": 5380,
      "places": 5381,
      "operating": 5382,
      "crime": 5383,
      "armenia": 5384,
      "applications": 5385,
      "snow": 5386,
      "hayek": 5387,
      "presbyter": 5388,
      "pi": 5389,
      "##arct": 5390,
      "##ounts": 5391,
      "enlight": 5392,
      "attend": 5393,
      "glac": 5394,
      "pressure": 5395,
      "marshall": 5396,
      "merc": 5397,
      "alask": 5398,
      "ens": 5399,
      "placed": 5400,
      "contest": 5401,
      "interv": 5402,
      "institution": 5403,
      "frequently": 5404,
      "beyond": 5405,
      "documents": 5406,
      "mich": 5407,
      "male": 5408,
      "rough": 5409,
      "##back": 5410,
      "carn": 5411,
      "bring": 5412,
      "simpl": 5413,
      "1970s": 5414,
      "burke": 5415,
      "richard": 5416,
      "doctr": 5417,
      "gain": 5418,
      "vector": 5419,
      "##edic": 5420,
      "##oting": 5421,
      "pars": 5422,
      "181": 5423,
      "secretary": 5424,
      "happened": 5425,
      "nick": 5426,
      "os": 5427,
      "##yth": 5428,
      "noted": 5429,
      "cultures": 5430,
      "officials": 5431,
      "whitehead": 5432,
      "cathedral": 5433,
      "instrument": 5434,
      "cz": 5435,
      "ice": 5436,
      "##kn": 5437,
      "##roun": 5438,
      "##ectors": 5439,
      "intel": 5440,
      "flag": 5441,
      "extract": 5442,
      "combined": 5443,
      "destroyed": 5444,
      "##orial": 5445,
      "##ump": 5446,
      "build": 5447,
      "1990": 5448,
      "hyderabad": 5449,
      "democratic": 5450,
      "300": 5451,
      "risk": 5452,
      "##idden": 5453,
      "excl": 5454,
      "##ensity": 5455,
      "reduce": 5456,
      "instruments": 5457,
      "thousands": 5458,
      "besides": 5459,
      "90": 5460,
      "aid": 5461,
      "hop": 5462,
      "rene": 5463,
      "sant": 5464,
      "##ees": 5465,
      "greeks": 5466,
      "feel": 5467,
      "returned": 5468,
      "nuclear": 5469,
      "magazine": 5470,
      "chicago": 5471,
      "ga": 5472,
      "rot": 5473,
      "thr": 5474,
      "##izes": 5475,
      "iron": 5476,
      "cyc": 5477,
      "crown": 5478,
      "##uate": 5479,
      "wealth": 5480,
      "gene": 5481,
      "peoples": 5482,
      "##othing": 5483,
      "tito": 5484,
      "journal": 5485,
      "bish": 5486,
      "qing": 5487,
      "theor": 5488,
      "##enna": 5489,
      "albert": 5490,
      "##istry": 5491,
      "seg": 5492,
      "web": 5493,
      "mah": 5494,
      "infr": 5495,
      "completed": 5496,
      "christians": 5497,
      "existence": 5498,
      "navy": 5499,
      "resources": 5500,
      "tuc": 5501,
      "##che": 5502,
      "##hold": 5503,
      "##adel": 5504,
      "neural": 5505,
      "enough": 5506,
      "robert": 5507,
      "supply": 5508,
      "efforts": 5509,
      "older": 5510,
      "distribution": 5511,
      "custom": 5512,
      "quickly": 5513,
      "czech": 5514,
      "stone": 5515,
      "player": 5516,
      "running": 5517,
      "offered": 5518,
      "failed": 5519,
      "suggest": 5520,
      "management": 5521,
      "cd": 5522,
      "doll": 5523,
      "##ax": 5524,
      "elections": 5525,
      "antarct": 5526,
      "letters": 5527,
      "joined": 5528,
      "resistance": 5529,
      "northwestern": 5530,
      "racial": 5531,
      "##itors": 5532,
      "##iles": 5533,
      "defense": 5534,
      "protect": 5535,
      "historic": 5536,
      "identified": 5537,
      "appeared": 5538,
      "adolesc": 5539,
      "simply": 5540,
      "ft": 5541,
      "ven": 5542,
      "##och": 5543,
      "spl": 5544,
      "recently": 5545,
      "score": 5546,
      "phase": 5547,
      "processing": 5548,
      "barcel": 5549,
      "##rovers": 5550,
      "400": 5551,
      "fair": 5552,
      "sector": 5553,
      "upper": 5554,
      "wides": 5555,
      "##sr": 5556,
      "compr": 5557,
      "organizations": 5558,
      "secondary": 5559,
      "greatest": 5560,
      "verb": 5561,
      "route": 5562,
      "interpret": 5563,
      "hellen": 5564,
      "barcelona": 5565,
      "##burg": 5566,
      "withd": 5567,
      "##iff": 5568,
      "1960s": 5569,
      "mixed": 5570,
      "frederic": 5571,
      "ran": 5572,
      "##ki": 5573,
      "neumann": 5574,
      "controvers": 5575,
      "2016": 5576,
      "preserv": 5577,
      "charl": 5578,
      "##hips": 5579,
      "apart": 5580,
      "victory": 5581,
      "practices": 5582,
      "david": 5583,
      "##chest": 5584,
      "##pan": 5585,
      "arist": 5586,
      "users": 5587,
      "intended": 5588,
      "course": 5589,
      "initial": 5590,
      "##force": 5591,
      "article": 5592,
      "understanding": 5593,
      "necessary": 5594,
      "mob": 5595,
      "##uth": 5596,
      "contract": 5597,
      "cold": 5598,
      "courts": 5599,
      "settlement": 5600,
      "behavior": 5601,
      "ey": 5602,
      "esc": 5603,
      "gar": 5604,
      "##ground": 5605,
      "ship": 5606,
      "charge": 5607,
      "armed": 5608,
      "republican": 5609,
      "clubs": 5610,
      "joint": 5611,
      "ships": 5612,
      "##ruption": 5613,
      "restaur": 5614,
      "standards": 5615,
      "lif": 5616,
      "master": 5617,
      "##uls": 5618,
      "install": 5619,
      "1991": 5620,
      "protection": 5621,
      "networks": 5622,
      "alternative": 5623,
      "apollo": 5624,
      "cle": 5625,
      "hin": 5626,
      "##wh": 5627,
      "##inate": 5628,
      "##ables": 5629,
      "traff": 5630,
      "artist": 5631,
      "application": 5632,
      "ibn": 5633,
      "enlighten": 5634,
      "33": 5635,
      "sand": 5636,
      "##bed": 5637,
      "##itual": 5638,
      "portion": 5639,
      "demand": 5640,
      "director": 5641,
      "effective": 5642,
      "temperatures": 5643,
      "bern": 5644,
      "munic": 5645,
      "##etry": 5646,
      "consequ": 5647,
      "agency": 5648,
      "poll": 5649,
      "internal": 5650,
      "factors": 5651,
      "mathemat": 5652,
      "brazil": 5653,
      "arsenal": 5654,
      "enlightenment": 5655,
      "municip": 5656,
      "gained": 5657,
      "ple": 5658,
      "tas": 5659,
      "##off": 5660,
      "##va": 5661,
      "##irm": 5662,
      "##ensions": 5663,
      "##phal": 5664,
      "reference": 5665,
      "properties": 5666,
      "points": 5667,
      "phen": 5668,
      "sover": 5669,
      "##lom": 5670,
      "adult": 5671,
      "actually": 5672,
      "towns": 5673,
      "prussian": 5674,
      "##aught": 5675,
      "ast": 5676,
      "nom": 5677,
      "vary": 5678,
      "##erate": 5679,
      "reasons": 5680,
      "##iant": 5681,
      "composed": 5682,
      "upd": 5683,
      "1997": 5684,
      "organisms": 5685,
      "officers": 5686,
      "##iques": 5687,
      "holy": 5688,
      "novel": 5689,
      "neighborhood": 5690,
      "southeast": 5691,
      "tucson": 5692,
      "berm": 5693,
      "##entions": 5694,
      "##aging": 5695,
      "grew": 5696,
      "sciences": 5697,
      "carried": 5698,
      "carbon": 5699,
      "subur": 5700,
      "developing": 5701,
      "flight": 5702,
      "shell": 5703,
      "ideal": 5704,
      "recognized": 5705,
      "regarding": 5706,
      "permanent": 5707,
      "dur": 5708,
      "hd": 5709,
      "##ket": 5710,
      "stru": 5711,
      "byz": 5712,
      "compos": 5713,
      "worked": 5714,
      "remaining": 5715,
      "##pread": 5716,
      "##intend": 5717,
      "materials": 5718,
      "colonies": 5719,
      "earthqu": 5720,
      "widespread": 5721,
      "rates": 5722,
      "##urs": 5723,
      "conce": 5724,
      "featured": 5725,
      "establishment": 5726,
      "somali": 5727,
      "expanded": 5728,
      "catalan": 5729,
      "freedom": 5730,
      "cyprus": 5731,
      "toward": 5732,
      "react": 5733,
      "heat": 5734,
      "##ansk": 5735,
      "decod": 5736,
      "strateg": 5737,
      "egyptian": 5738,
      "colonial": 5739,
      "headquarters": 5740,
      "70": 5741,
      "spiel": 5742,
      "governments": 5743,
      "extended": 5744,
      "##ifying": 5745,
      "volum": 5746,
      "cubs": 5747,
      "theatre": 5748,
      "renew": 5749,
      "sovereign": 5750,
      "byzant": 5751,
      "wear": 5752,
      "##ella": 5753,
      "ago": 5754,
      "coal": 5755,
      "difference": 5756,
      "issued": 5757,
      "christianity": 5758,
      "agreed": 5759,
      "academic": 5760,
      "galic": 5761,
      "channel": 5762,
      "bermud": 5763,
      "spielberg": 5764,
      "dance": 5765,
      "fields": 5766,
      "paral": 5767,
      "180": 5768,
      "instance": 5769,
      "mayor": 5770,
      "##phia": 5771,
      "##board": 5772,
      "accepted": 5773,
      "component": 5774,
      "round": 5775,
      "##dp": 5776,
      "##usal": 5777,
      "##ections": 5778,
      "acts": 5779,
      "objects": 5780,
      "elim": 5781,
      "importance": 5782,
      "allowing": 5783,
      "selection": 5784,
      "bbc": 5785,
      "dark": 5786,
      "kath": 5787,
      "zone": 5788,
      "##hamm": 5789,
      "##ortun": 5790,
      "address": 5791,
      "philadel": 5792,
      "advanced": 5793,
      "structures": 5794,
      "medicine": 5795,
      "discourse": 5796,
      "mandolin": 5797,
      "exam": 5798,
      "182": 5799,
      "expected": 5800,
      "flu": 5801,
      "confed": 5802,
      "semantic": 5803,
      "speakers": 5804,
      "philadelphia": 5805,
      "nine": 5806,
      "##ij": 5807,
      "adm": 5808,
      "evalu": 5809,
      "accur": 5810,
      "##ography": 5811,
      "railway": 5812,
      "##grees": 5813,
      "nigeria": 5814,
      "unlike": 5815,
      "lord": 5816,
      "##wise": 5817,
      "degrees": 5818,
      "##abul": 5819,
      "meant": 5820,
      "showed": 5821,
      "virt": 5822,
      "increasingly": 5823,
      "newspaper": 5824,
      "roughly": 5825,
      "fbi": 5826,
      "lamp": 5827,
      "mis": 5828,
      "##side": 5829,
      "##mand": 5830,
      "##arm": 5831,
      "conference": 5832,
      "write": 5833,
      "australian": 5834,
      "migration": 5835,
      "occupied": 5836,
      "ashken": 5837,
      "bon": 5838,
      "happ": 5839,
      "##uters": 5840,
      "##ras": 5841,
      "##onian": 5842,
      "##asts": 5843,
      "tower": 5844,
      "##iversity": 5845,
      "olympic": 5846,
      "hospital": 5847,
      "alaska": 5848,
      "nintend": 5849,
      "##ns": 5850,
      "##inet": 5851,
      "##esh": 5852,
      "unique": 5853,
      "train": 5854,
      "spring": 5855,
      "scot": 5856,
      "creating": 5857,
      "traditionally": 5858,
      "symbol": 5859,
      "nintendo": 5860,
      "dro": 5861,
      "ha": 5862,
      "##ini": 5863,
      "surroun": 5864,
      "communist": 5865,
      "raised": 5866,
      "capacity": 5867,
      "engineering": 5868,
      "goth": 5869,
      "giving": 5870,
      "mole": 5871,
      "takes": 5872,
      "##icial": 5873,
      "token": 5874,
      "recomm": 5875,
      "slow": 5876,
      "opposed": 5877,
      "literary": 5878,
      "penins": 5879,
      "maximum": 5880,
      "ign": 5881,
      "pair": 5882,
      "##ba": 5883,
      "schem": 5884,
      "autonom": 5885,
      "refers": 5886,
      "serious": 5887,
      "testing": 5888,
      "slavic": 5889,
      "defeat": 5890,
      "captured": 5891,
      "intellect": 5892,
      "bad": 5893,
      "mas": 5894,
      "##nel": 5895,
      "stores": 5896,
      "##osen": 5897,
      "##osis": 5898,
      "##licit": 5899,
      "1998": 5900,
      "passeng": 5901,
      "##riage": 5902,
      "slaves": 5903,
      "##hic": 5904,
      "##using": 5905,
      "bridge": 5906,
      "dominant": 5907,
      "entertain": 5908,
      "satellite": 5909,
      "lake": 5910,
      "##uated": 5911,
      "##xual": 5912,
      "comes": 5913,
      "repe": 5914,
      "playing": 5915,
      "1999": 5916,
      "179": 5917,
      "greatly": 5918,
      "swiss": 5919,
      "factor": 5920,
      "philosop": 5921,
      "penal": 5922,
      "completely": 5923,
      "exchange": 5924,
      "##ata": 5925,
      "##pped": 5926,
      "overall": 5927,
      "patent": 5928,
      "functions": 5929,
      "tribes": 5930,
      "closely": 5931,
      "communication": 5932,
      "alexander": 5933,
      "kings": 5934,
      "mess": 5935,
      "ric": 5936,
      "exerc": 5937,
      "nept": 5938,
      "##oslav": 5939,
      "workers": 5940,
      "entities": 5941,
      "technical": 5942,
      "equal": 5943,
      "opposition": 5944,
      "ibm": 5945,
      "meeting": 5946,
      "respectively": 5947,
      "extrem": 5948,
      "ful": 5949,
      "pack": 5950,
      "##gest": 5951,
      "##yan": 5952,
      "planned": 5953,
      "presidential": 5954,
      "affect": 5955,
      "breed": 5956,
      "characteristics": 5957,
      "condition": 5958,
      "absor": 5959,
      "embeddings": 5960,
      "removed": 5961,
      "kathmand": 5962,
      "amp": 5963,
      "sansk": 5964,
      "##uch": 5965,
      "##ils": 5966,
      "##ulated": 5967,
      "byu": 5968,
      "notably": 5969,
      "##ishing": 5970,
      "resolution": 5971,
      "1989": 5972,
      "volt": 5973,
      "korean": 5974,
      "mosaic": 5975,
      "kathmandu": 5976,
      "love": 5977,
      "page": 5978,
      "wanted": 5979,
      "recon": 5980,
      "poland": 5981,
      "##ologists": 5982,
      "distance": 5983,
      "operate": 5984,
      "probably": 5985,
      "affil": 5986,
      "##onym": 5987,
      "fleet": 5988,
      "francis": 5989,
      "intelligence": 5990,
      "tasks": 5991,
      "nut": 5992,
      "alt": 5993,
      "unf": 5994,
      "terminal": 5995,
      "causes": 5996,
      "typical": 5997,
      "sanskrit": 5998,
      "dan": 5999,
      "fer": 6000,
      "penn": 6001,
      "sir": 6002,
      "sought": 6003,
      "##anas": 6004,
      "##erson": 6005,
      "dead": 6006,
      "price": 6007,
      "##phone": 6008,
      "austria": 6009,
      "titles": 6010,
      "synt": 6011,
      "suggested": 6012,
      "fear": 6013,
      "noun": 6014,
      "colony": 6015,
      "damage": 6016,
      "situation": 6017,
      "turkish": 6018,
      "correspon": 6019,
      "kilomet": 6020,
      "##lig": 6021,
      "##iforn": 6022,
      "search": 6023,
      "leave": 6024,
      "reveal": 6025,
      "occurs": 6026,
      "senate": 6027,
      "constructed": 6028,
      "split": 6029,
      "pu": 6030,
      "##80": 6031,
      "##iny": 6032,
      "##ales": 6033,
      "online": 6034,
      "resident": 6035,
      "decades": 6036,
      "effort": 6037,
      "californ": 6038,
      "naval": 6039,
      "pronoun": 6040,
      "advantage": 6041,
      "presbyterian": 6042,
      "paralle": 6043,
      "mm": 6044,
      "mamm": 6045,
      "comics": 6046,
      "##elling": 6047,
      "##luded": 6048,
      "##box": 6049,
      "dominated": 6050,
      "laser": 6051,
      "phrase": 6052,
      "peninsula": 6053,
      "awards": 6054,
      "ira": 6055,
      "pil": 6056,
      "##lor": 6057,
      "##work": 6058,
      "asc": 6059,
      "##ada": 6060,
      "##ternal": 6061,
      "formation": 6062,
      "muslims": 6063,
      "inhabit": 6064,
      "neptune": 6065,
      "diet": 6066,
      "fast": 6067,
      "ku": 6068,
      "mt": 6069,
      "tub": 6070,
      "table": 6071,
      "##ients": 6072,
      "##vant": 6073,
      "theories": 6074,
      "##eston": 6075,
      "##umen": 6076,
      "allies": 6077,
      "recall": 6078,
      "appar": 6079,
      "grant": 6080,
      "extin": 6081,
      "influential": 6082,
      "affairs": 6083,
      "equival": 6084,
      "turned": 6085,
      "image": 6086,
      "environmental": 6087,
      "subsequent": 6088,
      "exclus": 6089,
      "clothing": 6090,
      "shared": 6091,
      "##hesis": 6092,
      "avoid": 6093,
      "experim": 6094,
      "connected": 6095,
      "scientists": 6096,
      "columb": 6097,
      "susp": 6098,
      "erit": 6099,
      "fought": 6100,
      "pure": 6101,
      "##ris": 6102,
      "chair": 6103,
      "##ibly": 6104,
      "popper": 6105,
      "organized": 6106,
      "politics": 6107,
      "refused": 6108,
      "arabic": 6109,
      "valencia": 6110,
      "roles": 6111,
      "##cation": 6112,
      "##za": 6113,
      "##agn": 6114,
      "recover": 6115,
      "recognition": 6116,
      "regarded": 6117,
      "georg": 6118,
      "housing": 6119,
      "fighting": 6120,
      "##rane": 6121,
      "##haps": 6122,
      "##stream": 6123,
      "stor": 6124,
      "preced": 6125,
      "room": 6126,
      "box": 6127,
      "continental": 6128,
      "guard": 6129,
      "dialogue": 6130,
      "estonian": 6131,
      "fifth": 6132,
      "bermuda": 6133,
      "fat": 6134,
      "##uk": 6135,
      "##inces": 6136,
      "##ening": 6137,
      "inher": 6138,
      "##ivals": 6139,
      "##andon": 6140,
      "clar": 6141,
      "perhaps": 6142,
      "corruption": 6143,
      "##grad": 6144,
      "techniques": 6145,
      "inside": 6146,
      "entered": 6147,
      "principle": 6148,
      "academy": 6149,
      "emerged": 6150,
      "juris": 6151,
      "##iced": 6152,
      "thir": 6153,
      "##ulate": 6154,
      "sport": 6155,
      "plans": 6156,
      "##encing": 6157,
      "carr": 6158,
      "actions": 6159,
      "1992": 6160,
      "##riers": 6161,
      "constitutional": 6162,
      "questions": 6163,
      "friends": 6164,
      "cerem": 6165,
      "traffic": 6166,
      "cable": 6167,
      "fill": 6168,
      "sort": 6169,
      "##lines": 6170,
      "##wan": 6171,
      "prote": 6172,
      "comment": 6173,
      "uns": 6174,
      "prison": 6175,
      "herit": 6176,
      "powerful": 6177,
      "affected": 6178,
      "negot": 6179,
      "administrative": 6180,
      "awarded": 6181,
      "romans": 6182,
      "essential": 6183,
      "entertainment": 6184,
      "face": 6185,
      "vow": 6186,
      "##rd": 6187,
      "##olf": 6188,
      "sho": 6189,
      "doing": 6190,
      "symp": 6191,
      "provinces": 6192,
      "1994": 6193,
      "maintain": 6194,
      "declar": 6195,
      "runs": 6196,
      "antibiot": 6197,
      "burn": 6198,
      "fib": 6199,
      "##com": 6200,
      "pros": 6201,
      "comcast": 6202,
      "##abilities": 6203,
      "trip": 6204,
      "overse": 6205,
      "ordered": 6206,
      "datab": 6207,
      "namib": 6208,
      "harm": 6209,
      "significantly": 6210,
      "coup": 6211,
      "gothic": 6212,
      "eritre": 6213,
      "fel": 6214,
      "ring": 6215,
      "##ari": 6216,
      "computers": 6217,
      "perce": 6218,
      "transc": 6219,
      "strength": 6220,
      "movements": 6221,
      "achieved": 6222,
      "ultim": 6223,
      "california": 6224,
      "iraq": 6225,
      "##ault": 6226,
      "##vin": 6227,
      "##entially": 6228,
      "seek": 6229,
      "adver": 6230,
      "classified": 6231,
      "vehic": 6232,
      "leadership": 6233,
      "substant": 6234,
      "agriculture": 6235,
      "##abulary": 6236,
      "drop": 6237,
      "##ua": 6238,
      "##10": 6239,
      "##orter": 6240,
      "seasons": 6241,
      "desert": 6242,
      "##ropri": 6243,
      "opportun": 6244,
      "something": 6245,
      "presented": 6246,
      "arrang": 6247,
      "witnesses": 6248,
      "weapons": 6249,
      "fully": 6250,
      "75": 6251,
      "ho": 6252,
      "##ville": 6253,
      "##isters": 6254,
      "##usc": 6255,
      "seem": 6256,
      "allied": 6257,
      "##soft": 6258,
      "relay": 6259,
      "transmit": 6260,
      "sax": 6261,
      "drive": 6262,
      "historians": 6263,
      "policies": 6264,
      "borough": 6265,
      "orientation": 6266,
      "cry": 6267,
      "crop": 6268,
      "nar": 6269,
      "rein": 6270,
      "##imon": 6271,
      "suff": 6272,
      "neut": 6273,
      "abandon": 6274,
      "17th": 6275,
      "restrict": 6276,
      "treatment": 6277,
      "constitu": 6278,
      "equip": 6279,
      "calcul": 6280,
      "microsoft": 6281,
      "corporation": 6282,
      "earthquake": 6283,
      "##hammad": 6284,
      "intellectual": 6285,
      "heritage": 6286,
      "ax": 6287,
      "gives": 6288,
      "hidden": 6289,
      "jack": 6290,
      "##icted": 6291,
      "##sey": 6292,
      "chosen": 6293,
      "##sole": 6294,
      "relative": 6295,
      "predict": 6296,
      "raj": 6297,
      "adopt": 6298,
      "attempted": 6299,
      "rejected": 6300,
      "gdp": 6301,
      "##mark": 6302,
      "percept": 6303,
      "alliance": 6304,
      "graph": 6305,
      "1995": 6306,
      "temple": 6307,
      "architectural": 6308,
      "dominic": 6309,
      "versions": 6310,
      "expression": 6311,
      "iranian": 6312,
      "vacu": 6313,
      "##ranean": 6314,
      "bce": 6315,
      "bird": 6316,
      "mong": 6317,
      "pak": 6318,
      "wil": 6319,
      "##eed": 6320,
      "##more": 6321,
      "##cer": 6322,
      "##ste": 6323,
      "##osh": 6324,
      "tried": 6325,
      "##aker": 6326,
      "weeks": 6327,
      "prepar": 6328,
      "brown": 6329,
      "relationships": 6330,
      "friend": 6331,
      "anthropology": 6332,
      "nickn": 6333,
      "surrounding": 6334,
      "dedic": 6335,
      "viet": 6336,
      "##van": 6337,
      "##het": 6338,
      "sust": 6339,
      "shift": 6340,
      "weather": 6341,
      "coop": 6342,
      "traditions": 6343,
      "philip": 6344,
      "tempor": 6345,
      "punk": 6346,
      "aspects": 6347,
      "patterns": 6348,
      "honor": 6349,
      "rus": 6350,
      "your": 6351,
      "##da": 6352,
      "##ros": 6353,
      "enem": 6354,
      "compre": 6355,
      "mind": 6356,
      "going": 6357,
      "opening": 6358,
      "viewed": 6359,
      "reserve": 6360,
      "equipment": 6361,
      "hub": 6362,
      "##nes": 6363,
      "chain": 6364,
      "hispan": 6365,
      "rob": 6366,
      "extensive": 6367,
      "libya": 6368,
      "kept": 6369,
      "listed": 6370,
      "determine": 6371,
      "virginia": 6372,
      "byzantine": 6373,
      "jun": 6374,
      "li": 6375,
      "yout": 6376,
      "##aver": 6377,
      "##ga": 6378,
      "contact": 6379,
      "evolved": 6380,
      "whereas": 6381,
      "floor": 6382,
      "1996": 6383,
      "mediter": 6384,
      "persian": 6385,
      "experi": 6386,
      "existing": 6387,
      "covered": 6388,
      "banks": 6389,
      "settled": 6390,
      "ancestry": 6391,
      "electrical": 6392,
      "youtube": 6393,
      "moving": 6394,
      "copyr": 6395,
      "claims": 6396,
      "paid": 6397,
      "silver": 6398,
      "##iciency": 6399,
      "mediterranean": 6400,
      "ly": 6401,
      "##ws": 6402,
      "##atically": 6403,
      "trial": 6404,
      "genoc": 6405,
      "serves": 6406,
      "helena": 6407,
      "slave": 6408,
      "colleges": 6409,
      "advance": 6410,
      "propos": 6411,
      "authorities": 6412,
      "employed": 6413,
      "##ceeded": 6414,
      "innov": 6415,
      "inspired": 6416,
      "scotland": 6417,
      "38": 6418,
      "gir": 6419,
      "mort": 6420,
      "maced": 6421,
      "sony": 6422,
      "sites": 6423,
      "deﬁ": 6424,
      "prize": 6425,
      "leaving": 6426,
      "newly": 6427,
      "twent": 6428,
      "1950s": 6429,
      "formerly": 6430,
      "mexican": 6431,
      "heavily": 6432,
      "na": 6433,
      "nic": 6434,
      "##rid": 6435,
      "genome": 6436,
      "##ologies": 6437,
      "specif": 6438,
      "strate": 6439,
      "trees": 6440,
      "purs": 6441,
      "burma": 6442,
      "emotion": 6443,
      "vocabulary": 6444,
      "double": 6445,
      "maintained": 6446,
      "diplom": 6447,
      "vacuum": 6448,
      "bure": 6449,
      "fit": 6450,
      "vast": 6451,
      "##edy": 6452,
      "##iting": 6453,
      "und": 6454,
      "height": 6455,
      "actual": 6456,
      "invented": 6457,
      "bush": 6458,
      "samur": 6459,
      "determined": 6460,
      "achieve": 6461,
      "introduce": 6462,
      "teaching": 6463,
      "34": 6464,
      "webs": 6465,
      "feet": 6466,
      "##ugoslav": 6467,
      "operated": 6468,
      "150": 6469,
      "16th": 6470,
      "concert": 6471,
      "lighting": 6472,
      "angel": 6473,
      "buddhist": 6474,
      "algorithms": 6475,
      "quarter": 6476,
      "joseph": 6477,
      "strategy": 6478,
      "44": 6479,
      "64": 6480,
      "density": 6481,
      "param": 6482,
      "sets": 6483,
      "discip": 6484,
      "occasion": 6485,
      "appearance": 6486,
      "reforms": 6487,
      "contributed": 6488,
      "acquired": 6489,
      "incorporated": 6490,
      "vietn": 6491,
      "yugoslav": 6492,
      "##orters": 6493,
      "##ald": 6494,
      "##oty": 6495,
      "teac": 6496,
      "discrim": 6497,
      "matches": 6498,
      "requires": 6499,
      "calend": 6500,
      "holds": 6501,
      "depending": 6502,
      "ukrain": 6503,
      "emerg": 6504,
      "subsequently": 6505,
      "immedi": 6506,
      "00": 6507,
      "da": 6508,
      "fix": 6509,
      "van": 6510,
      "asphal": 6511,
      "suc": 6512,
      "##ody": 6513,
      "revenue": 6514,
      "178": 6515,
      "continent": 6516,
      "respond": 6517,
      "represents": 6518,
      "etc": 6519,
      "farm": 6520,
      "attacked": 6521,
      "commander": 6522,
      "focused": 6523,
      "improve": 6524,
      "introduction": 6525,
      "phenomen": 6526,
      "parallel": 6527,
      "copyright": 6528,
      "hur": 6529,
      "rival": 6530,
      "##onia": 6531,
      "proport": 6532,
      "exact": 6533,
      "classic": 6534,
      "drink": 6535,
      "reading": 6536,
      "biggest": 6537,
      "turkey": 6538,
      "conducted": 6539,
      "ultimately": 6540,
      "isol": 6541,
      "##ett": 6542,
      "##uther": 6543,
      "##osure": 6544,
      "closed": 6545,
      "shape": 6546,
      "publish": 6547,
      "providing": 6548,
      "extent": 6549,
      "##olve": 6550,
      "conservative": 6551,
      "suffered": 6552,
      "hypot": 6553,
      "carnival": 6554,
      "doctrine": 6555,
      "santa": 6556,
      "cov": 6557,
      "dry": 6558,
      "mes": 6559,
      "##field": 6560,
      "##orate": 6561,
      "stock": 6562,
      "manch": 6563,
      "shif": 6564,
      "formally": 6565,
      "visited": 6566,
      "budget": 6567,
      "skill": 6568,
      "charleston": 6569,
      "strugg": 6570,
      "bureau": 6571,
      "samurai": 6572,
      "cu": 6573,
      "mc": 6574,
      "##ione": 6575,
      "forb": 6576,
      "ones": 6577,
      "adapt": 6578,
      "##igned": 6579,
      "index": 6580,
      "gram": 6581,
      "publication": 6582,
      "insect": 6583,
      "historically": 6584,
      "educational": 6585,
      "multi": 6586,
      "arrived": 6587,
      "israeli": 6588,
      "croat": 6589,
      "manufacturing": 6590,
      "encoder": 6591,
      "mp": 6592,
      "sav": 6593,
      "woman": 6594,
      "##ano": 6595,
      "##agon": 6596,
      "pra": 6597,
      "spons": 6598,
      "subjects": 6599,
      "commonwe": 6600,
      "slight": 6601,
      "freem": 6602,
      "##uck": 6603,
      "edward": 6604,
      "editor": 6605,
      "debate": 6606,
      "samo": 6607,
      "voltage": 6608,
      "commonwealth": 6609,
      "bands": 6610,
      "zeal": 6611,
      "##iary": 6612,
      "congreg": 6613,
      "##uting": 6614,
      "partners": 6615,
      "1993": 6616,
      "1988": 6617,
      "russians": 6618,
      "gradually": 6619,
      "improved": 6620,
      "converted": 6621,
      "mentioned": 6622,
      "linguistic": 6623,
      "storage": 6624,
      "immediately": 6625,
      "cos": 6626,
      "lie": 6627,
      "##iy": 6628,
      "##vised": 6629,
      "interact": 6630,
      "advoc": 6631,
      "batt": 6632,
      "category": 6633,
      "categories": 6634,
      "selling": 6635,
      "opin": 6636,
      "ratio": 6637,
      "approved": 6638,
      "municipal": 6639,
      "namibia": 6640,
      "pakistan": 6641,
      "bow": 6642,
      "mir": 6643,
      "roll": 6644,
      "tall": 6645,
      "##chers": 6646,
      "##ety": 6647,
      "forward": 6648,
      "console": 6649,
      "tra": 6650,
      "trained": 6651,
      "rose": 6652,
      "norf": 6653,
      "trading": 6654,
      "120": 6655,
      "failure": 6656,
      "distinction": 6657,
      "choice": 6658,
      "precip": 6659,
      "immigrants": 6660,
      "extremely": 6661,
      "comprehens": 6662,
      "rural": 6663,
      "##fl": 6664,
      "alle": 6665,
      "external": 6666,
      "sev": 6667,
      "##ogen": 6668,
      "notes": 6669,
      "plays": 6670,
      "string": 6671,
      "writers": 6672,
      "1970": 6673,
      "nearby": 6674,
      "winning": 6675,
      "analy": 6676,
      "principles": 6677,
      "aspect": 6678,
      "benefit": 6679,
      "credit": 6680,
      "equivalent": 6681,
      "genocide": 6682,
      "37": 6683,
      "gym": 6684,
      "rare": 6685,
      "taught": 6686,
      "vin": 6687,
      "yell": 6688,
      "##ael": 6689,
      "##la": 6690,
      "##itable": 6691,
      "muhammad": 6692,
      "positions": 6693,
      "germans": 6694,
      "annex": 6695,
      "declined": 6696,
      "popularity": 6697,
      "critics": 6698,
      "views": 6699,
      "combat": 6700,
      "biological": 6701,
      "capture": 6702,
      "display": 6703,
      "therm": 6704,
      "600": 6705,
      "ham": 6706,
      "##ses": 6707,
      "##where": 6708,
      "alum": 6709,
      "contained": 6710,
      "scre": 6711,
      "brief": 6712,
      "safety": 6713,
      "78": 6714,
      "##ading": 6715,
      "beat": 6716,
      "studied": 6717,
      "cork": 6718,
      "variation": 6719,
      "officer": 6720,
      "guam": 6721,
      "representatives": 6722,
      "ranking": 6723,
      "discovery": 6724,
      "concerns": 6725,
      "nether": 6726,
      "candidate": 6727,
      "inhabitants": 6728,
      "lives": 6729,
      "##har": 6730,
      "##hov": 6731,
      "##iring": 6732,
      "canon": 6733,
      "assent": 6734,
      "##ancy": 6735,
      "offices": 6736,
      "##istered": 6737,
      "generated": 6738,
      "digimon": 6739,
      "walk": 6740,
      "elevator": 6741,
      "cruc": 6742,
      "penalty": 6743,
      "bab": 6744,
      "cav": 6745,
      "dst": 6746,
      "ports": 6747,
      "tok": 6748,
      "alco": 6749,
      "##thing": 6750,
      "feyn": 6751,
      "##osexual": 6752,
      "##issance": 6753,
      "##orders": 6754,
      "producing": 6755,
      "terror": 6756,
      "industries": 6757,
      "minimum": 6758,
      "diverse": 6759,
      "##stein": 6760,
      "ben": 6761,
      "din": 6762,
      "##li": 6763,
      "trust": 6764,
      "1940": 6765,
      "goods": 6766,
      "investment": 6767,
      "360": 6768,
      "sacr": 6769,
      "jurisd": 6770,
      "dedicated": 6771,
      "feynman": 6772,
      "dates": 6773,
      "pestic": 6774,
      "##ship": 6775,
      "##uits": 6776,
      "rever": 6777,
      "enj": 6778,
      "##iform": 6779,
      "seed": 6780,
      "marine": 6781,
      "expect": 6782,
      "sole": 6783,
      "armies": 6784,
      "classification": 6785,
      "southw": 6786,
      "retail": 6787,
      "similarly": 6788,
      "kingdoms": 6789,
      "facilities": 6790,
      "myan": 6791,
      "tourism": 6792,
      "choose": 6793,
      "texas": 6794,
      "zealand": 6795,
      "aro": 6796,
      "gender": 6797,
      "rating": 6798,
      "inj": 6799,
      "##asc": 6800,
      "alps": 6801,
      "projects": 6802,
      "prices": 6803,
      "try": 6804,
      "##ustr": 6805,
      "##ricts": 6806,
      "studio": 6807,
      "serving": 6808,
      "processes": 6809,
      "attempts": 6810,
      "revolutionary": 6811,
      "coastal": 6812,
      "hindu": 6813,
      "ashkenazi": 6814,
      "asphalt": 6815,
      "65": 6816,
      "egg": 6817,
      "rivers": 6818,
      "##ping": 6819,
      "alph": 6820,
      "##ichuan": 6821,
      "##ession": 6822,
      "##rick": 6823,
      "consc": 6824,
      "charter": 6825,
      "quite": 6826,
      "periods": 6827,
      "treaties": 6828,
      "ruler": 6829,
      "tai": 6830,
      "lowest": 6831,
      "semi": 6832,
      "circum": 6833,
      "##ipped": 6834,
      "measures": 6835,
      "indicate": 6836,
      "purposes": 6837,
      "grammar": 6838,
      "rapidly": 6839,
      "antarctica": 6840,
      "myanmar": 6841,
      "41": 6842,
      "51": 6843,
      "bil": 6844,
      "dang": 6845,
      "lad": 6846,
      "rale": 6847,
      "##edia": 6848,
      "##oring": 6849,
      "forest": 6850,
      "oblig": 6851,
      "jehov": 6852,
      "crus": 6853,
      "1945": 6854,
      "speaker": 6855,
      "homes": 6856,
      "electricity": 6857,
      "manufactur": 6858,
      "abbey": 6859,
      "agricultural": 6860,
      "asked": 6861,
      "specifically": 6862,
      "norfolk": 6863,
      "yellow": 6864,
      "49": 6865,
      "48": 6866,
      "hong": 6867,
      "mom": 6868,
      "##ni": 6869,
      "##my": 6870,
      "chrom": 6871,
      "parents": 6872,
      "expensive": 6873,
      "monte": 6874,
      "identify": 6875,
      "transportation": 6876,
      "montana": 6877,
      "volume": 6878,
      "raleigh": 6879,
      "jehovah": 6880,
      "astr": 6881,
      "dra": 6882,
      "rib": 6883,
      "tom": 6884,
      "spent": 6885,
      "scott": 6886,
      "arms": 6887,
      "philipp": 6888,
      "appears": 6889,
      "circuit": 6890,
      "43": 6891,
      "bible": 6892,
      "hus": 6893,
      "iv": 6894,
      "ts": 6895,
      "wife": 6896,
      "##oral": 6897,
      "##tery": 6898,
      "abd": 6899,
      "appropri": 6900,
      "married": 6901,
      "revol": 6902,
      "continues": 6903,
      "edition": 6904,
      "taj": 6905,
      "predomin": 6906,
      "promoted": 6907,
      "expressed": 6908,
      "pione": 6909,
      "rena": 6910,
      "##lis": 6911,
      "##rix": 6912,
      "##miss": 6913,
      "##amental": 6914,
      "unic": 6915,
      "appoint": 6916,
      "secular": 6917,
      "describes": 6918,
      "gods": 6919,
      "figures": 6920,
      "styles": 6921,
      "separated": 6922,
      "audience": 6923,
      "legislation": 6924,
      "career": 6925,
      "programming": 6926,
      "selected": 6927,
      "happens": 6928,
      "database": 6929,
      "calendar": 6930,
      "dub": 6931,
      "diversity": 6932,
      "xbox": 6933,
      "ali": 6934,
      "alone": 6935,
      "nep": 6936,
      "compression": 6937,
      "repro": 6938,
      "carriers": 6939,
      "deploy": 6940,
      "societies": 6941,
      "177": 6942,
      "dram": 6943,
      "guine": 6944,
      "sentiment": 6945,
      "visual": 6946,
      "##apping": 6947,
      "originated": 6948,
      "km2": 6949,
      "electronic": 6950,
      "kinds": 6951,
      "neutral": 6952,
      "experienced": 6953,
      "bond": 6954,
      "cool": 6955,
      "diction": 6956,
      "##60": 6957,
      "cham": 6958,
      "manh": 6959,
      "managed": 6960,
      "reports": 6961,
      "genre": 6962,
      "opera": 6963,
      "owners": 6964,
      "directed": 6965,
      "connection": 6966,
      "radical": 6967,
      "initi": 6968,
      "strongly": 6969,
      "merch": 6970,
      "survey": 6971,
      "talk": 6972,
      "championship": 6973,
      "##attan": 6974,
      "gam": 6975,
      "##uil": 6976,
      "##gun": 6977,
      "##pm": 6978,
      "##station": 6979,
      "truth": 6980,
      "seems": 6981,
      "abol": 6982,
      "districts": 6983,
      "needs": 6984,
      "1980": 6985,
      "descend": 6986,
      "1950": 6987,
      "promot": 6988,
      "##iﬁc": 6989,
      "linked": 6990,
      "guns": 6991,
      "repeated": 6992,
      "800": 6993,
      "cid": 6994,
      "sult": 6995,
      "sounds": 6996,
      "##acing": 6997,
      "##amic": 6998,
      "shop": 6999,
      "transmission": 7000,
      "buy": 7001,
      "archae": 7002,
      "representations": 7003,
      "argument": 7004,
      "##ographic": 7005,
      "anglo": 7006,
      "principal": 7007,
      "communications": 7008,
      "princess": 7009,
      "classiﬁer": 7010,
      "dropped": 7011,
      "enjoy": 7012,
      "eat": 7013,
      "los": 7014,
      "##disc": 7015,
      "##road": 7016,
      "thing": 7017,
      "als": 7018,
      "worth": 7019,
      "compute": 7020,
      "apply": 7021,
      "coher": 7022,
      "broke": 7023,
      "1979": 7024,
      "membership": 7025,
      "solid": 7026,
      "physics": 7027,
      "debt": 7028,
      "emotions": 7029,
      "linear": 7030,
      "gymn": 7031,
      "mr": 7032,
      "##ching": 7033,
      "plate": 7034,
      "containing": 7035,
      "marriage": 7036,
      "flow": 7037,
      "jobs": 7038,
      "copies": 7039,
      "limits": 7040,
      "hotel": 7041,
      "baptist": 7042,
      "founding": 7043,
      "netherlands": 7044,
      "tell": 7045,
      "##ev": 7046,
      "##rum": 7047,
      "##iar": 7048,
      "##rect": 7049,
      "##ola": 7050,
      "strict": 7051,
      "agencies": 7052,
      "offers": 7053,
      "surr": 7054,
      "shel": 7055,
      "leds": 7056,
      "streets": 7057,
      "visible": 7058,
      "existed": 7059,
      "losses": 7060,
      "licens": 7061,
      "decoder": 7062,
      "55": 7063,
      "ba": 7064,
      "cogn": 7065,
      "eld": 7066,
      "races": 7067,
      "vectors": 7068,
      "##ped": 7069,
      "##iration": 7070,
      "coming": 7071,
      "atom": 7072,
      "usage": 7073,
      "appeal": 7074,
      "accused": 7075,
      "capable": 7076,
      "theme": 7077,
      "advent": 7078,
      "1930s": 7079,
      "separation": 7080,
      "buddha": 7081,
      "error": 7082,
      "observed": 7083,
      "legislative": 7084,
      "withdraw": 7085,
      "sail": 7086,
      "zero": 7087,
      "##cing": 7088,
      "##come": 7089,
      "##writ": 7090,
      "##icians": 7091,
      "##unc": 7092,
      "enforce": 7093,
      "##iana": 7094,
      "trying": 7095,
      "shap": 7096,
      "corps": 7097,
      "affirm": 7098,
      "researchers": 7099,
      "poetry": 7100,
      "combination": 7101,
      "saying": 7102,
      "rebell": 7103,
      "labeled": 7104,
      "orders": 7105,
      "galicia": 7106,
      "manhattan": 7107,
      "crow": 7108,
      "sud": 7109,
      "amend": 7110,
      "fresh": 7111,
      "regime": 7112,
      "proved": 7113,
      "playstation": 7114,
      "175": 7115,
      "annually": 7116,
      "causing": 7117,
      "practical": 7118,
      "motors": 7119,
      "favour": 7120,
      "exception": 7121,
      "criticized": 7122,
      "nobility": 7123,
      "felt": 7124,
      "renaissance": 7125,
      "39": 7126,
      "47": 7127,
      "cant": 7128,
      "daugh": 7129,
      "fash": 7130,
      "habit": 7131,
      "ov": 7132,
      "sle": 7133,
      "##band": 7134,
      "thuring": 7135,
      "atm": 7136,
      "decor": 7137,
      "pubs": 7138,
      "swed": 7139,
      "passage": 7140,
      "funding": 7141,
      "goals": 7142,
      "justice": 7143,
      "layers": 7144,
      "learn": 7145,
      "entirely": 7146,
      "golden": 7147,
      "vocal": 7148,
      "classiﬁcation": 7149,
      "wrestling": 7150,
      "adolescents": 7151,
      "peter": 7152,
      "rod": 7153,
      "sq": 7154,
      "vice": 7155,
      "wire": 7156,
      "##set": 7157,
      "##rich": 7158,
      "##puts": 7159,
      "##enge": 7160,
      "##agr": 7161,
      "lexic": 7162,
      "agree": 7163,
      "metric": 7164,
      "1986": 7165,
      "effectively": 7166,
      "motion": 7167,
      "veget": 7168,
      "fundamental": 7169,
      "mosaics": 7170,
      "correspond": 7171,
      "assigned": 7172,
      "renamed": 7173,
      "nickname": 7174,
      "dc": 7175,
      "jul": 7176,
      "liqu": 7177,
      "##cher": 7178,
      "theater": 7179,
      "##itud": 7180,
      "##iders": 7181,
      "storm": 7182,
      "##igu": 7183,
      "bear": 7184,
      "##ople": 7185,
      "clust": 7186,
      "colors": 7187,
      "exped": 7188,
      "ministry": 7189,
      "origins": 7190,
      "basket": 7191,
      "13th": 7192,
      "analog": 7193,
      "cycle": 7194,
      "update": 7195,
      "corresponding": 7196,
      "ak": 7197,
      "bou": 7198,
      "rand": 7199,
      "si": 7200,
      "send": 7201,
      "##rest": 7202,
      "##well": 7203,
      "procl": 7204,
      "##ayana": 7205,
      "shr": 7206,
      "marvel": 7207,
      "decisions": 7208,
      "obt": 7209,
      "avic": 7210,
      "matrix": 7211,
      "12th": 7212,
      "counts": 7213,
      "sixth": 7214,
      "concerned": 7215,
      "embedding": 7216,
      "doub": 7217,
      "northwest": 7218,
      "strategic": 7219,
      "revealed": 7220,
      "guinea": 7221,
      "map": 7222,
      "pir": 7223,
      "##wers": 7224,
      "##iano": 7225,
      "arbor": 7226,
      "longest": 7227,
      "extra": 7228,
      "severe": 7229,
      "markets": 7230,
      "technologies": 7231,
      "250": 7232,
      "dependent": 7233,
      "hellenistic": 7234,
      "narrow": 7235,
      "atmosp": 7236,
      "54": 7237,
      "fuel": 7238,
      "gra": 7239,
      "les": 7240,
      "um": 7241,
      "##oe": 7242,
      "##eces": 7243,
      "univer": 7244,
      "divine": 7245,
      "easily": 7246,
      "##bourg": 7247,
      "males": 7248,
      "profession": 7249,
      "duke": 7250,
      "groun": 7251,
      "42": 7252,
      "52": 7253,
      "foss": 7254,
      "row": 7255,
      "##ja": 7256,
      "##ala": 7257,
      "stored": 7258,
      "##isted": 7259,
      "parks": 7260,
      "##ighter": 7261,
      "polar": 7262,
      "prey": 7263,
      "infant": 7264,
      "setting": 7265,
      "germanic": 7266,
      "1949": 7267,
      "1939": 7268,
      "replace": 7269,
      "planning": 7270,
      "announce": 7271,
      "absol": 7272,
      "athanas": 7273,
      "beliefs": 7274,
      "subsid": 7275,
      "michael": 7276,
      "interpretation": 7277,
      "frederick": 7278,
      "restaurants": 7279,
      "tajik": 7280,
      "99": 7281,
      "hence": 7282,
      "##techn": 7283,
      "##iations": 7284,
      "##ji": 7285,
      "##jiang": 7286,
      "##fect": 7287,
      "##itz": 7288,
      "stress": 7289,
      "reaction": 7290,
      "weak": 7291,
      "metro": 7292,
      "supporters": 7293,
      "persons": 7294,
      "representing": 7295,
      "funds": 7296,
      "executed": 7297,
      "professor": 7298,
      "scholar": 7299,
      "neighbour": 7300,
      "successfully": 7301,
      "challeng": 7302,
      "antibiotics": 7303,
      "hispanic": 7304,
      "slightly": 7305,
      "borders": 7306,
      "chen": 7307,
      "got": 7308,
      "hu": 7309,
      "lose": 7310,
      "ray": 7311,
      "##jab": 7312,
      "stal": 7313,
      "##emb": 7314,
      "##ibr": 7315,
      "otherwise": 7316,
      "firm": 7317,
      "descent": 7318,
      "branc": 7319,
      "depos": 7320,
      "176": 7321,
      "fox": 7322,
      "characterized": 7323,
      "harv": 7324,
      "criticism": 7325,
      "settlers": 7326,
      "conquered": 7327,
      "berlin": 7328,
      "drugs": 7329,
      "hundreds": 7330,
      "bishop": 7331,
      "declaration": 7332,
      "universe": 7333,
      "##ache": 7334,
      "##apse": 7335,
      "items": 7336,
      "##akh": 7337,
      "scen": 7338,
      "forming": 7339,
      "roots": 7340,
      "americas": 7341,
      "boy": 7342,
      "invaded": 7343,
      "protected": 7344,
      "standing": 7345,
      "1975": 7346,
      "laid": 7347,
      "possibly": 7348,
      "ruling": 7349,
      "changing": 7350,
      "oppon": 7351,
      "##intosh": 7352,
      "balk": 7353,
      "suggests": 7354,
      "occupation": 7355,
      "consumption": 7356,
      "bitumen": 7357,
      "village": 7358,
      "segment": 7359,
      "battles": 7360,
      "alcohol": 7361,
      "fashion": 7362,
      "avicenna": 7363,
      "bed": 7364,
      "dv": 7365,
      "fu": 7366,
      "file": 7367,
      "folk": 7368,
      "luther": 7369,
      "##de": 7370,
      "##water": 7371,
      "##acement": 7372,
      "##otic": 7373,
      "compl": 7374,
      "compounds": 7375,
      "centers": 7376,
      "reality": 7377,
      "learned": 7378,
      "normally": 7379,
      "employees": 7380,
      "walls": 7381,
      "overseas": 7382,
      "46": 7383,
      "hem": 7384,
      "lot": 7385,
      "solution": 7386,
      "sichuan": 7387,
      "##oon": 7388,
      "##ani": 7389,
      "##acle": 7390,
      "##ricted": 7391,
      "medium": 7392,
      "memorial": 7393,
      "job": 7394,
      "efficiency": 7395,
      "organism": 7396,
      "refuge": 7397,
      "##lectric": 7398,
      "skin": 7399,
      "judges": 7400,
      "coverage": 7401,
      "punjab": 7402,
      "bombing": 7403,
      "preferred": 7404,
      "aristot": 7405,
      "perceived": 7406,
      "mp3": 7407,
      "95": 7408,
      "bib": 7409,
      "lith": 7410,
      "lies": 7411,
      "pont": 7412,
      "sides": 7413,
      "##oz": 7414,
      "##oys": 7415,
      "##pro": 7416,
      "##erts": 7417,
      "##ador": 7418,
      "##uty": 7419,
      "sumer": 7420,
      "##avel": 7421,
      "attended": 7422,
      "##ologist": 7423,
      "interst": 7424,
      "noble": 7425,
      "chronic": 7426,
      "somers": 7427,
      "producer": 7428,
      "statement": 7429,
      "frequent": 7430,
      "judge": 7431,
      "hosted": 7432,
      "##ipping": 7433,
      "albums": 7434,
      "democracy": 7435,
      "collab": 7436,
      "consumer": 7437,
      "cardinals": 7438,
      "##know": 7439,
      "concepts": 7440,
      "columbia": 7441,
      "athanasius": 7442,
      "73": 7443,
      "az": 7444,
      "cin": 7445,
      "pig": 7446,
      "pairs": 7447,
      "##gil": 7448,
      "##ﬁc": 7449,
      "anat": 7450,
      "##etr": 7451,
      "##ado": 7452,
      "##ira": 7453,
      "proced": 7454,
      "clock": 7455,
      "scene": 7456,
      "##hedul": 7457,
      "exposure": 7458,
      "acid": 7459,
      "signals": 7460,
      "follows": 7461,
      "efficient": 7462,
      "1967": 7463,
      "argue": 7464,
      "##ripts": 7465,
      "mechanical": 7466,
      "voice": 7467,
      "rhyth": 7468,
      "quantum": 7469,
      "polytechn": 7470,
      "dollar": 7471,
      "scheme": 7472,
      "taiwan": 7473,
      "astronom": 7474,
      "3rd": 7475,
      "bin": 7476,
      "cm": 7477,
      "pul": 7478,
      "vent": 7479,
      "wa": 7480,
      "##vide": 7481,
      "##ka": 7482,
      "##inations": 7483,
      "##ician": 7484,
      "##iled": 7485,
      "##olith": 7486,
      "##abet": 7487,
      "explicit": 7488,
      "metaph": 7489,
      "supposed": 7490,
      "##iots": 7491,
      "1982": 7492,
      "1974": 7493,
      "encoun": 7494,
      "loyal": 7495,
      "1941": 7496,
      "deliver": 7497,
      "experiment": 7498,
      "hands": 7499,
      "consisting": 7500,
      "somalia": 7501,
      "celebrated": 7502,
      "purchase": 7503,
      "founder": 7504,
      "tokens": 7505,
      "montevide": 7506,
      "sultan": 7507,
      "57": 7508,
      "cbc": 7509,
      "fal": 7510,
      "lam": 7511,
      "pus": 7512,
      "rar": 7513,
      "##uing": 7514,
      "##uro": 7515,
      "##rev": 7516,
      "##omes": 7517,
      "stay": 7518,
      "ending": 7519,
      "arena": 7520,
      "afl": 7521,
      "schedul": 7522,
      "accounts": 7523,
      "divisions": 7524,
      "1987": 7525,
      "landing": 7526,
      "crim": 7527,
      "morph": 7528,
      "hosts": 7529,
      "mechanism": 7530,
      "becomes": 7531,
      "demonstrated": 7532,
      "nepal": 7533,
      "montevideo": 7534,
      "diam": 7535,
      "kiev": 7536,
      "outer": 7537,
      "##cr": 7538,
      "pray": 7539,
      "electro": 7540,
      "detect": 7541,
      "everton": 7542,
      "generate": 7543,
      "massive": 7544,
      "estimates": 7545,
      "denomin": 7546,
      "computing": 7547,
      "advert": 7548,
      "affirmative": 7549,
      "basketball": 7550,
      "hab": 7551,
      "nes": 7552,
      "wing": 7553,
      "##life": 7554,
      "clin": 7555,
      "canal": 7556,
      "2017": 7557,
      "boys": 7558,
      "##erty": 7559,
      "considerable": 7560,
      "driven": 7561,
      "1968": 7562,
      "historian": 7563,
      "telephone": 7564,
      "sunday": 7565,
      "discussed": 7566,
      "accompan": 7567,
      "coalition": 7568,
      "vietnam": 7569,
      "bought": 7570,
      "mcc": 7571,
      "np": 7572,
      "util": 7573,
      "zh": 7574,
      "##anes": 7575,
      "ussr": 7576,
      "disapp": 7577,
      "syria": 7578,
      "invent": 7579,
      "leads": 7580,
      "slaver": 7581,
      "guar": 7582,
      "produces": 7583,
      "technique": 7584,
      "concluded": 7585,
      "authors": 7586,
      "radiation": 7587,
      "bodies": 7588,
      "hanover": 7589,
      "constantin": 7590,
      "##chester": 7591,
      "mammals": 7592,
      "mongol": 7593,
      "precipitation": 7594,
      "slavery": 7595,
      "bott": 7596,
      "mit": 7597,
      "sections": 7598,
      "##bury": 7599,
      "##oric": 7600,
      "##igation": 7601,
      "alp": 7602,
      "##opol": 7603,
      "disput": 7604,
      "soul": 7605,
      "flat": 7606,
      "termin": 7607,
      "1985": 7608,
      "##ructure": 7609,
      "1976": 7610,
      "additionally": 7611,
      "superior": 7612,
      "volun": 7613,
      "regulations": 7614,
      "comparison": 7615,
      "platform": 7616,
      "picture": 7617,
      "branches": 7618,
      "2nd": 7619,
      "luc": 7620,
      "vert": 7621,
      "##hy": 7622,
      "bei": 7623,
      "##thur": 7624,
      "exem": 7625,
      "agent": 7626,
      "twice": 7627,
      "##ifications": 7628,
      "defend": 7629,
      "##erto": 7630,
      "persp": 7631,
      "##aza": 7632,
      "writer": 7633,
      "alongside": 7634,
      "household": 7635,
      "broadc": 7636,
      "facility": 7637,
      "reduction": 7638,
      "translated": 7639,
      "estimate": 7640,
      "costs": 7641,
      "paint": 7642,
      "wales": 7643,
      "visitors": 7644,
      "parsing": 7645,
      "tuberc": 7646,
      "bass": 7647,
      "##ez": 7648,
      "##gu": 7649,
      "##ati": 7650,
      "##eck": 7651,
      "onto": 7652,
      "##ims": 7653,
      "exists": 7654,
      "seats": 7655,
      "ministers": 7656,
      "domain": 7657,
      "sequences": 7658,
      "macintosh": 7659,
      "collapse": 7660,
      "manager": 7661,
      "thousand": 7662,
      "##house": 7663,
      "encouraged": 7664,
      "illeg": 7665,
      "substantial": 7666,
      "website": 7667,
      "bac": 7668,
      "fine": 7669,
      "nomin": 7670,
      "ru": 7671,
      "sic": 7672,
      "##asions": 7673,
      "##irmed": 7674,
      "prohib": 7675,
      "incident": 7676,
      "##ansas": 7677,
      "conson": 7678,
      "acknow": 7679,
      "europeans": 7680,
      "1984": 7681,
      "request": 7682,
      "performing": 7683,
      "characteristic": 7684,
      "assumed": 7685,
      "ranges": 7686,
      "boundaries": 7687,
      "molec": 7688,
      "cuis": 7689,
      "croatian": 7690,
      "53": 7691,
      "bann": 7692,
      "dal": 7693,
      "gross": 7694,
      "pact": 7695,
      "##ront": 7696,
      "##inity": 7697,
      "uniform": 7698,
      "martin": 7699,
      "warm": 7700,
      "assess": 7701,
      "##contin": 7702,
      "operates": 7703,
      "religions": 7704,
      "designated": 7705,
      "1960": 7706,
      "datas": 7707,
      "hung": 7708,
      "assistance": 7709,
      "attributed": 7710,
      "lodge": 7711,
      "sustain": 7712,
      "temporal": 7713,
      "tubercul": 7714,
      "63": 7715,
      "fish": 7716,
      "vit": 7717,
      "voted": 7718,
      "##era": 7719,
      "stim": 7720,
      "stra": 7721,
      "##aya": 7722,
      "##assic": 7723,
      "export": 7724,
      "infring": 7725,
      "palest": 7726,
      "expressions": 7727,
      "says": 7728,
      "conquest": 7729,
      "recordings": 7730,
      "pitch": 7731,
      "candidates": 7732,
      "garden": 7733,
      "laserdisc": 7734,
      "carrier": 7735,
      "predominant": 7736,
      "unicode": 7737,
      "##olithic": 7738,
      "beijing": 7739,
      "cul": 7740,
      "cra": 7741,
      "kong": 7742,
      "nag": 7743,
      "ritual": 7744,
      "##net": 7745,
      "##oo": 7746,
      "##heas": 7747,
      "##iland": 7748,
      "begun": 7749,
      "enrol": 7750,
      "arc": 7751,
      "weights": 7752,
      "##achus": 7753,
      "locations": 7754,
      "minutes": 7755,
      "1969": 7756,
      "austrian": 7757,
      "harbor": 7758,
      "promote": 7759,
      "substit": 7760,
      "spectrum": 7761,
      "details": 7762,
      "puerto": 7763,
      "yugoslavia": 7764,
      "proportion": 7765,
      "comprehensive": 7766,
      "##itudes": 7767,
      "grounds": 7768,
      "eton": 7769,
      "rn": 7770,
      "##organ": 7771,
      "empir": 7772,
      "belg": 7773,
      "protests": 7774,
      "##ropical": 7775,
      "supporting": 7776,
      "literal": 7777,
      "background": 7778,
      "edge": 7779,
      "neverthe": 7780,
      "spoke": 7781,
      "murder": 7782,
      "protein": 7783,
      "cryst": 7784,
      "abandoned": 7785,
      "fixed": 7786,
      "nevertheless": 7787,
      "56": 7788,
      "fly": 7789,
      "gate": 7790,
      "haw": 7791,
      "sin": 7792,
      "##rence": 7793,
      "##wing": 7794,
      "##40": 7795,
      "##ilia": 7796,
      "adap": 7797,
      "greg": 7798,
      "indeed": 7799,
      "bright": 7800,
      "interests": 7801,
      "increases": 7802,
      "##azz": 7803,
      "philosophical": 7804,
      "graduate": 7805,
      "extreme": 7806,
      "rainfall": 7807,
      "mutual": 7808,
      "infrared": 7809,
      "mobile": 7810,
      "succeeded": 7811,
      "moment": 7812,
      "5th": 7813,
      "##itar": 7814,
      "anton": 7815,
      "##eld": 7816,
      "chi": 7817,
      "commer": 7818,
      "peas": 7819,
      "meat": 7820,
      "retained": 7821,
      "jeff": 7822,
      "entr": 7823,
      "1972": 7824,
      "statist": 7825,
      "##igram": 7826,
      "##bridge": 7827,
      "myth": 7828,
      "grown": 7829,
      "diseases": 7830,
      "infrast": 7831,
      "clean": 7832,
      "##what": 7833,
      "residential": 7834,
      "occasionally": 7835,
      "rebellion": 7836,
      "constantinople": 7837,
      "700": 7838,
      "dict": 7839,
      "pick": 7840,
      "sah": 7841,
      "tons": 7842,
      "wed": 7843,
      "yuan": 7844,
      "touch": 7845,
      "##omb": 7846,
      "##stic": 7847,
      "##igan": 7848,
      "##cht": 7849,
      "##utation": 7850,
      "bea": 7851,
      "excess": 7852,
      "enact": 7853,
      "usa": 7854,
      "colour": 7855,
      "##oke": 7856,
      "undergrad": 7857,
      "brand": 7858,
      "instruct": 7859,
      "buck": 7860,
      "coord": 7861,
      "matters": 7862,
      "1978": 7863,
      "influences": 7864,
      "househol": 7865,
      "1948": 7866,
      "restricted": 7867,
      "hunter": 7868,
      "ps3": 7869,
      "festivals": 7870,
      "illustr": 7871,
      "purchased": 7872,
      "implemented": 7873,
      "spirit": 7874,
      "emphasis": 7875,
      "piece": 7876,
      "eye": 7877,
      "enemy": 7878,
      "rub": 7879,
      "sie": 7880,
      "sister": 7881,
      "ton": 7882,
      "##tv": 7883,
      "##wor": 7884,
      "##ato": 7885,
      "##ouse": 7886,
      "##stone": 7887,
      "##acent": 7888,
      "parent": 7889,
      "##aug": 7890,
      "root": 7891,
      "surpr": 7892,
      "johnson": 7893,
      "northeast": 7894,
      "execution": 7895,
      "hardware": 7896,
      "horse": 7897,
      "renewable": 7898,
      "eritrea": 7899,
      "aw": 7900,
      "ol": 7901,
      "rum": 7902,
      "tb": 7903,
      "##equ": 7904,
      "##sa": 7905,
      "##ois": 7906,
      "##hma": 7907,
      "##bur": 7908,
      "inner": 7909,
      "##itals": 7910,
      "##ura": 7911,
      "##agan": 7912,
      "shot": 7913,
      "scores": 7914,
      "##xture": 7915,
      "writes": 7916,
      "##ports": 7917,
      "swe": 7918,
      "description": 7919,
      "preval": 7920,
      "successor": 7921,
      "14th": 7922,
      "rulers": 7923,
      "businesses": 7924,
      "measured": 7925,
      "connections": 7926,
      "watch": 7927,
      "spectre": 7928,
      "credited": 7929,
      "integrated": 7930,
      "challenge": 7931,
      "installed": 7932,
      "mathematics": 7933,
      "passengers": 7934,
      "opinion": 7935,
      "liquid": 7936,
      "guarant": 7937,
      "59": 7938,
      "zhe": 7939,
      "##rison": 7940,
      "##iro": 7941,
      "somewhat": 7942,
      "stras": 7943,
      "cultiv": 7944,
      "15th": 7945,
      "160": 7946,
      "concl": 7947,
      "##iveness": 7948,
      "immun": 7949,
      "privile": 7950,
      "judicial": 7951,
      "borrow": 7952,
      "responsibility": 7953,
      "senior": 7954,
      "requirements": 7955,
      "khan": 7956,
      "mercury": 7957,
      "discrimination": 7958,
      "tuberculosis": 7959,
      "commerce": 7960,
      "cel": 7961,
      "gh": 7962,
      "pale": 7963,
      "votes": 7964,
      "wu": 7965,
      "##ycl": 7966,
      "##zing": 7967,
      "promp": 7968,
      "composition": 7969,
      "##iph": 7970,
      "abstr": 7971,
      "##ulty": 7972,
      "someone": 7973,
      "##ika": 7974,
      "soci": 7975,
      "##asonry": 7976,
      "##minster": 7977,
      "1966": 7978,
      "barr": 7979,
      "begins": 7980,
      "federation": 7981,
      "experiences": 7982,
      "##aimed": 7983,
      "1914": 7984,
      "involves": 7985,
      "virgil": 7986,
      "condem": 7987,
      "conception": 7988,
      "slavs": 7989,
      "violence": 7990,
      "warsaw": 7991,
      "benefits": 7992,
      "adjust": 7993,
      "ensure": 7994,
      "controversy": 7995,
      "reconst": 7996,
      "perception": 7997,
      "criminal": 7998,
      "77": 7999,
      "bot": 8000,
      "fol": 8001,
      "huge": 8002,
      "kenn": 8003,
      "lis": 8004,
      "ram": 8005,
      "##isf": 8006,
      "thick": 8007,
      "##uration": 8008,
      "##ayy": 8009,
      "sum": 8010,
      "##abil": 8011,
      "residence": 8012,
      "disag": 8013,
      "musc": 8014,
      "interior": 8015,
      "remove": 8016,
      "obtain": 8017,
      "daylight": 8018,
      "1981": 8019,
      "1977": 8020,
      "barb": 8021,
      "easy": 8022,
      "1000": 8023,
      "encoding": 8024,
      "coreference": 8025,
      "casual": 8026,
      "pieces": 8027,
      "kilometres": 8028,
      "chairman": 8029,
      "twenty": 8030,
      "infrastructure": 8031,
      "strasbourg": 8032,
      "hier": 8033,
      "mentions": 8034,
      "od": 8035,
      "##lation": 8036,
      "##escent": 8037,
      "congo": 8038,
      "unable": 8039,
      "##avian": 8040,
      "##under": 8041,
      "clim": 8042,
      "##ultane": 8043,
      "indo": 8044,
      "governed": 8045,
      "monaster": 8046,
      "simultane": 8047,
      "protoc": 8048,
      "entry": 8049,
      "1971": 8050,
      "approaches": 8051,
      "labels": 8052,
      "winner": 8053,
      "receiving": 8054,
      "sky": 8055,
      "involving": 8056,
      "destruction": 8057,
      "nutrit": 8058,
      "restrictions": 8059,
      "southwest": 8060,
      "somerset": 8061,
      "1st": 8062,
      "fert": 8063,
      "jac": 8064,
      "lum": 8065,
      "mol": 8066,
      "##reg": 8067,
      "enh": 8068,
      "consec": 8069,
      "mainstream": 8070,
      "smo": 8071,
      "representative": 8072,
      "winds": 8073,
      "frequencies": 8074,
      "furthermore": 8075,
      "dependency": 8076,
      "epic": 8077,
      "observation": 8078,
      "capacitors": 8079,
      "printed": 8080,
      "links": 8081,
      "niger": 8082,
      "broadcasting": 8083,
      "pictures": 8084,
      "throne": 8085,
      "screen": 8086,
      "pesticides": 8087,
      "daughter": 8088,
      "lithuan": 8089,
      "faced": 8090,
      "gor": 8091,
      "nl": 8092,
      "pav": 8093,
      "wider": 8094,
      "##dr": 8095,
      "##pass": 8096,
      "##orous": 8097,
      "inaug": 8098,
      "##itarian": 8099,
      "conj": 8100,
      "##ota": 8101,
      "enab": 8102,
      "##ighth": 8103,
      "marks": 8104,
      "consult": 8105,
      "transit": 8106,
      "capp": 8107,
      "flour": 8108,
      "powered": 8109,
      "singer": 8110,
      "##place": 8111,
      "offering": 8112,
      "senses": 8113,
      "millenn": 8114,
      "oxy": 8115,
      "6th": 8116,
      "gulf": 8117,
      "mist": 8118,
      "pt": 8119,
      "##mas": 8120,
      "##brew": 8121,
      "##eness": 8122,
      "##recht": 8123,
      "manner": 8124,
      "##illery": 8125,
      "##auc": 8126,
      "governing": 8127,
      "discs": 8128,
      "reduc": 8129,
      "portr": 8130,
      "1983": 8131,
      "1973": 8132,
      "relevant": 8133,
      "1961": 8134,
      "personnel": 8135,
      "holding": 8136,
      "initiated": 8137,
      "explor": 8138,
      "legislature": 8139,
      "symbols": 8140,
      "immigration": 8141,
      "asthma": 8142,
      "sufficient": 8143,
      "eggs": 8144,
      "obtained": 8145,
      "rog": 8146,
      "##aism": 8147,
      "##han": 8148,
      "whites": 8149,
      "1900": 8150,
      "partner": 8151,
      "calls": 8152,
      "revival": 8153,
      "westminster": 8154,
      "retr": 8155,
      "courses": 8156,
      "referend": 8157,
      "profit": 8158,
      "oppos": 8159,
      "norman": 8160,
      "tourists": 8161,
      "parliamentary": 8162,
      "hills": 8163,
      "brothers": 8164,
      "spiritual": 8165,
      "jerusal": 8166,
      "extinction": 8167,
      "ceremony": 8168,
      "jerusalem": 8169,
      "85": 8170,
      "88": 8171,
      "aa": 8172,
      "ah": 8173,
      "raw": 8174,
      "save": 8175,
      "wik": 8176,
      "waves": 8177,
      "##erated": 8178,
      "##erted": 8179,
      "##inian": 8180,
      "infer": 8181,
      "##etts": 8182,
      "##adian": 8183,
      "pries": 8184,
      "nothing": 8185,
      "incand": 8186,
      "amounts": 8187,
      "scul": 8188,
      "files": 8189,
      "caes": 8190,
      "copy": 8191,
      "predators": 8192,
      "1918": 8193,
      "planet": 8194,
      "##apped": 8195,
      "steel": 8196,
      "elevators": 8197,
      "##ommunic": 8198,
      "castle": 8199,
      "optim": 8200,
      "abbrev": 8201,
      "decrease": 8202,
      "philosopher": 8203,
      "dominican": 8204,
      "proposal": 8205,
      "alsace": 8206,
      "infantry": 8207,
      "interstate": 8208,
      "rarely": 8209,
      "zhejiang": 8210,
      "oxygen": 8211,
      "4th": 8212,
      "sar": 8213,
      "vess": 8214,
      "xx": 8215,
      "alf": 8216,
      "proceed": 8217,
      "neither": 8218,
      "rely": 8219,
      "aggress": 8220,
      "regression": 8221,
      "##awa": 8222,
      "carl": 8223,
      "##fully": 8224,
      "serb": 8225,
      "##orne": 8226,
      "arguments": 8227,
      "##going": 8228,
      "shortly": 8229,
      "epis": 8230,
      "images": 8231,
      "bacterial": 8232,
      "##garian": 8233,
      "emotional": 8234,
      "conversion": 8235,
      "exhibition": 8236,
      "lamps": 8237,
      "recommended": 8238,
      "exercise": 8239,
      "thuringia": 8240,
      "expedition": 8241,
      "absolute": 8242,
      "##heastern": 8243,
      "db": 8244,
      "fans": 8245,
      "ic": 8246,
      "##gs": 8247,
      "##rete": 8248,
      "tool": 8249,
      "##eless": 8250,
      "##idal": 8251,
      "orchest": 8252,
      "##agues": 8253,
      "##ocon": 8254,
      "worship": 8255,
      "lex": 8256,
      "adher": 8257,
      "afgh": 8258,
      "frag": 8259,
      "highway": 8260,
      "revers": 8261,
      "varieties": 8262,
      "avo": 8263,
      "patri": 8264,
      "##book": 8265,
      "explan": 8266,
      "youth": 8267,
      "cubism": 8268,
      "collaps": 8269,
      "capacitor": 8270,
      "behavi": 8271,
      "angeles": 8272,
      "covers": 8273,
      "shopping": 8274,
      "##unciation": 8275,
      "reducing": 8276,
      "referendum": 8277,
      "liver": 8278,
      "rational": 8279,
      "sina": 8280,
      "tel": 8281,
      "wavel": 8282,
      "##kins": 8283,
      "##oud": 8284,
      "##ilit": 8285,
      "exceed": 8286,
      "##ques": 8287,
      "##oked": 8288,
      "artillery": 8289,
      "patron": 8290,
      "1944": 8291,
      "predic": 8292,
      "digest": 8293,
      "supervised": 8294,
      "videos": 8295,
      "balance": 8296,
      "damaged": 8297,
      "roads": 8298,
      "routes": 8299,
      "conservation": 8300,
      "neighboring": 8301,
      "dimensions": 8302,
      "monarchy": 8303,
      "distinguish": 8304,
      "contestants": 8305,
      "neighborhoods": 8306,
      "drinking": 8307,
      "jurisdiction": 8308,
      "drawn": 8309,
      "appropriate": 8310,
      "stalin": 8311,
      "cinem": 8312,
      "accompanied": 8313,
      "siege": 8314,
      "opposite": 8315,
      "sculpt": 8316,
      "flying": 8317,
      "mental": 8318,
      "sale": 8319,
      "##rent": 8320,
      "##gers": 8321,
      "##letic": 8322,
      "##iling": 8323,
      "##olid": 8324,
      "##eters": 8325,
      "##etics": 8326,
      "##emp": 8327,
      "##iants": 8328,
      "manusc": 8329,
      "adding": 8330,
      "##lication": 8331,
      "pharm": 8332,
      "airlines": 8333,
      "coron": 8334,
      "hero": 8335,
      "broken": 8336,
      "filament": 8337,
      "headed": 8338,
      "anglic": 8339,
      "recognize": 8340,
      "committed": 8341,
      "err": 8342,
      "violent": 8343,
      "targets": 8344,
      "##cules": 8345,
      "tracks": 8346,
      "transferred": 8347,
      "ranging": 8348,
      "cabinet": 8349,
      "geographical": 8350,
      "variations": 8351,
      "bishops": 8352,
      "diplomatic": 8353,
      "promotion": 8354,
      "random": 8355,
      "62": 8356,
      "mile": 8357,
      "qa": 8358,
      "wine": 8359,
      "##ny": 8360,
      "##kary": 8361,
      "toler": 8362,
      "tools": 8363,
      "stem": 8364,
      "spr": 8365,
      "shut": 8366,
      "rooms": 8367,
      "movies": 8368,
      "surround": 8369,
      "restored": 8370,
      "thinking": 8371,
      "luft": 8372,
      "utrecht": 8373,
      "looking": 8374,
      "umayy": 8375,
      "cuisine": 8376,
      "households": 8377,
      "ptole": 8378,
      "afghan": 8379,
      "8th": 8380,
      "aqu": 8381,
      "lun": 8382,
      "pump": 8383,
      "rising": 8384,
      "sut": 8385,
      "sab": 8386,
      "tan": 8387,
      "vision": 8388,
      "told": 8389,
      "##lem": 8390,
      "##amin": 8391,
      "##esty": 8392,
      "unre": 8393,
      "##illa": 8394,
      "resc": 8395,
      "assass": 8396,
      "developments": 8397,
      "musicians": 8398,
      "advis": 8399,
      "civilization": 8400,
      "motiv": 8401,
      "employment": 8402,
      "logic": 8403,
      "closer": 8404,
      "moon": 8405,
      "ordinary": 8406,
      "continuous": 8407,
      "approval": 8408,
      "adjacent": 8409,
      "mahayana": 8410,
      "thermal": 8411,
      "aristotle": 8412,
      "statistical": 8413,
      "68": 8414,
      "pages": 8415,
      "ron": 8416,
      "rpm": 8417,
      "##time": 8418,
      "##enues": 8419,
      "##icon": 8420,
      "##lets": 8421,
      "##idou": 8422,
      "stages": 8423,
      "stories": 8424,
      "##estig": 8425,
      "plus": 8426,
      "plain": 8427,
      "partly": 8428,
      "overl": 8429,
      "##oking": 8430,
      "##issions": 8431,
      "1964": 8432,
      "temporary": 8433,
      "socialist": 8434,
      "similarity": 8435,
      "judaism": 8436,
      "window": 8437,
      "verbs": 8438,
      "##affe": 8439,
      "survived": 8440,
      "21st": 8441,
      "precision": 8442,
      "distributed": 8443,
      "settlements": 8444,
      "psychology": 8445,
      "vehicles": 8446,
      "teacher": 8447,
      "scottish": 8448,
      "sleep": 8449,
      "dj": 8450,
      "hz": 8451,
      "nas": 8452,
      "sed": 8453,
      "##rons": 8454,
      "##iat": 8455,
      "##ved": 8456,
      "##aria": 8457,
      "##asth": 8458,
      "##utical": 8459,
      "2020": 8460,
      "manchester": 8461,
      "compare": 8462,
      "##angel": 8463,
      "counties": 8464,
      "assert": 8465,
      "chart": 8466,
      "publis": 8467,
      "invention": 8468,
      "endang": 8469,
      "varies": 8470,
      "mainland": 8471,
      "heads": 8472,
      "1955": 8473,
      "merged": 8474,
      "punish": 8475,
      "evolutionary": 8476,
      "newspapers": 8477,
      "concentration": 8478,
      "distinguished": 8479,
      "mathematical": 8480,
      "autonomy": 8481,
      "amendment": 8482,
      "incandescent": 8483,
      "bos": 8484,
      "dated": 8485,
      "heter": 8486,
      "pin": 8487,
      "ped": 8488,
      "rend": 8489,
      "tact": 8490,
      "voting": 8491,
      "ze": 8492,
      "##nas": 8493,
      "##pers": 8494,
      "##etical": 8495,
      "##uman": 8496,
      "spans": 8497,
      "parad": 8498,
      "leon": 8499,
      "intention": 8500,
      "reloc": 8501,
      "assets": 8502,
      "lock": 8503,
      "captain": 8504,
      "artific": 8505,
      "slov": 8506,
      "valid": 8507,
      "showing": 8508,
      "1965": 8509,
      "independently": 8510,
      "11th": 8511,
      "blacks": 8512,
      "1920s": 8513,
      "debut": 8514,
      "females": 8515,
      "olympics": 8516,
      "sample": 8517,
      "immediate": 8518,
      "variable": 8519,
      "crops": 8520,
      "manufacturers": 8521,
      "philippines": 8522,
      "casualties": 8523,
      "79": 8524,
      "74": 8525,
      "dress": 8526,
      "soph": 8527,
      "##uay": 8528,
      "##don": 8529,
      "##kh": 8530,
      "##zy": 8531,
      "##fare": 8532,
      "theology": 8533,
      "##eded": 8534,
      "##icus": 8535,
      "thin": 8536,
      "deleg": 8537,
      "enl": 8538,
      "clause": 8539,
      "shipping": 8540,
      "inches": 8541,
      "alloy": 8542,
      "scr": 8543,
      "mart": 8544,
      "decide": 8545,
      "mineral": 8546,
      "##ribed": 8547,
      "smith": 8548,
      "treated": 8549,
      "economics": 8550,
      "amongst": 8551,
      "referring": 8552,
      "finished": 8553,
      "1953": 8554,
      "baltic": 8555,
      "merely": 8556,
      "establishing": 8557,
      "diarr": 8558,
      "homosexual": 8559,
      "imag": 8560,
      "safe": 8561,
      "threatened": 8562,
      "computational": 8563,
      "concentrated": 8564,
      "suburbs": 8565,
      "exclusive": 8566,
      "unsu": 8567,
      "opportunity": 8568,
      "chromos": 8569,
      "58": 8570,
      "66": 8571,
      "au": 8572,
      "cp": 8573,
      "dating": 8574,
      "mall": 8575,
      "nazi": 8576,
      "##hea": 8577,
      "inqu": 8578,
      "orbit": 8579,
      "spend": 8580,
      "shall": 8581,
      "adults": 8582,
      "2019": 8583,
      "twil": 8584,
      "populous": 8585,
      "define": 8586,
      "##ocking": 8587,
      "elite": 8588,
      "identical": 8589,
      "soviets": 8590,
      "salt": 8591,
      "bias": 8592,
      "papers": 8593,
      "machines": 8594,
      "funded": 8595,
      "seleuc": 8596,
      "coherence": 8597,
      "tajikistan": 8598,
      "alpine": 8599,
      "wavelength": 8600,
      "liv": 8601,
      "vul": 8602,
      "##ded": 8603,
      "##bre": 8604,
      "ing": 8605,
      "##ishes": 8606,
      "##eli": 8607,
      "stating": 8608,
      "##emic": 8609,
      "parse": 8610,
      "compat": 8611,
      "notion": 8612,
      "hebrew": 8613,
      "relief": 8614,
      "doesn": 8615,
      "brig": 8616,
      "studios": 8617,
      "interface": 8618,
      "flood": 8619,
      "provinc": 8620,
      "emit": 8621,
      "remark": 8622,
      "extend": 8623,
      "nato": 8624,
      "troph": 8625,
      "bombers": 8626,
      "billboard": 8627,
      "romantic": 8628,
      "wildlife": 8629,
      "michigan": 8630,
      "jackson": 8631,
      "girls": 8632,
      "twilight": 8633,
      "bh": 8634,
      "binary": 8635,
      "dot": 8636,
      "kansas": 8637,
      "piano": 8638,
      "##uff": 8639,
      "##iable": 8640,
      "##can": 8641,
      "##zhou": 8642,
      "aside": 8643,
      "org": 8644,
      "consolid": 8645,
      "presid": 8646,
      "secure": 8647,
      "1962": 8648,
      "##rove": 8649,
      "fewer": 8650,
      "reformation": 8651,
      "logistic": 8652,
      "contributions": 8653,
      "switch": 8654,
      "conflicts": 8655,
      "investigation": 8656,
      "ampl": 8657,
      "farmers": 8658,
      "freemasonry": 8659,
      "atomic": 8660,
      "molecular": 8661,
      "7th": 8662,
      "ninet": 8663,
      "sel": 8664,
      "urug": 8665,
      "##ais": 8666,
      "##cts": 8667,
      "##gi": 8668,
      "##urt": 8669,
      "##etime": 8670,
      "##emen": 8671,
      "unity": 8672,
      "##apes": 8673,
      "tri": 8674,
      "trail": 8675,
      "leaves": 8676,
      "maria": 8677,
      "grid": 8678,
      "##tebr": 8679,
      "164": 8680,
      "designs": 8681,
      "1963": 8682,
      "architects": 8683,
      "vienna": 8684,
      "salv": 8685,
      "1912": 8686,
      "depends": 8687,
      "2000s": 8688,
      "##known": 8689,
      "controversial": 8690,
      "varying": 8691,
      "evaluation": 8692,
      "cognitive": 8693,
      "chihu": 8694,
      "cappella": 8695,
      "uruguay": 8696,
      "hair": 8697,
      "##eenth": 8698,
      "##mann": 8699,
      "##cy": 8700,
      "##waffe": 8701,
      "beidou": 8702,
      "prol": 8703,
      "unknown": 8704,
      "trig": 8705,
      "dismiss": 8706,
      "indones": 8707,
      "agents": 8708,
      "##ateral": 8709,
      "underst": 8710,
      "intermed": 8711,
      "capita": 8712,
      "flower": 8713,
      "depression": 8714,
      "artistic": 8715,
      "probabilities": 8716,
      "goes": 8717,
      "stret": 8718,
      "structural": 8719,
      "massachus": 8720,
      "explain": 8721,
      "1920": 8722,
      "logical": 8723,
      "situated": 8724,
      "vacc": 8725,
      "reaching": 8726,
      "lodges": 8727,
      "autonomous": 8728,
      "discipline": 8729,
      "descendants": 8730,
      "surrender": 8731,
      "abstract": 8732,
      "chihuah": 8733,
      "massachusetts": 8734,
      "bag": 8735,
      "hang": 8736,
      "jones": 8737,
      "jazz": 8738,
      "sz": 8739,
      "tam": 8740,
      "tests": 8741,
      "##mon": 8742,
      "##jan": 8743,
      "##orph": 8744,
      "##anda": 8745,
      "plains": 8746,
      "adject": 8747,
      "strike": 8748,
      "operational": 8749,
      "writings": 8750,
      "legit": 8751,
      "legend": 8752,
      "apost": 8753,
      "encomp": 8754,
      "loan": 8755,
      "featuring": 8756,
      "compete": 8757,
      "consisted": 8758,
      "elevation": 8759,
      "regularly": 8760,
      "essentially": 8761,
      "reflected": 8762,
      "coins": 8763,
      "adolescence": 8764,
      "ranks": 8765,
      "restaurant": 8766,
      "passenger": 8767,
      "francisco": 8768,
      "perspective": 8769,
      "##worth": 8770,
      "wikip": 8771,
      "encompass": 8772,
      "biss": 8773,
      "gang": 8774,
      "horn": 8775,
      "hope": 8776,
      "losing": 8777,
      "yang": 8778,
      "##mat": 8779,
      "##15": 8780,
      "##eries": 8781,
      "##idges": 8782,
      "##irated": 8783,
      "align": 8784,
      "trend": 8785,
      "spot": 8786,
      "2018": 8787,
      "twel": 8788,
      "evac": 8789,
      "engaged": 8790,
      "soil": 8791,
      "provision": 8792,
      "strings": 8793,
      "brows": 8794,
      "annel": 8795,
      "proto": 8796,
      "1958": 8797,
      "stream": 8798,
      "deaths": 8799,
      "reformed": 8800,
      "armenians": 8801,
      "survive": 8802,
      "ethnicity": 8803,
      "romance": 8804,
      "substance": 8805,
      "bronze": 8806,
      "participate": 8807,
      "assume": 8808,
      "bulb": 8809,
      "customs": 8810,
      "carrying": 8811,
      "customers": 8812,
      "dollars": 8813,
      "struggle": 8814,
      "arose": 8815,
      "##continent": 8816,
      "98": 8817,
      "aer": 8818,
      "bid": 8819,
      "banned": 8820,
      "dual": 8821,
      "fro": 8822,
      "jim": 8823,
      "ties": 8824,
      "va": 8825,
      "vic": 8826,
      "##ho": 8827,
      "##gl": 8828,
      "##pool": 8829,
      "##itic": 8830,
      "##iday": 8831,
      "waste": 8832,
      "dean": 8833,
      "##iful": 8834,
      "spending": 8835,
      "worst": 8836,
      "scar": 8837,
      "exposed": 8838,
      "##ounded": 8839,
      "mode": 8840,
      "gray": 8841,
      "carib": 8842,
      "airports": 8843,
      "organic": 8844,
      "10th": 8845,
      "swaz": 8846,
      "168": 8847,
      "liberty": 8848,
      "loans": 8849,
      "succession": 8850,
      "1956": 8851,
      "denied": 8852,
      "deriv": 8853,
      "taxes": 8854,
      "necessarily": 8855,
      "sharing": 8856,
      "framework": 8857,
      "aimed": 8858,
      "jersey": 8859,
      "bringing": 8860,
      "sovereignty": 8861,
      "virtually": 8862,
      "isolated": 8863,
      "vinyl": 8864,
      "orchestra": 8865,
      "luftwaffe": 8866,
      "endangered": 8867,
      "900": 8868,
      "bah": 8869,
      "duc": 8870,
      "gosp": 8871,
      "rice": 8872,
      "tay": 8873,
      "##top": 8874,
      "stable": 8875,
      "imposed": 8876,
      "infection": 8877,
      "upr": 8878,
      "bras": 8879,
      "boom": 8880,
      "medal": 8881,
      "varied": 8882,
      "extension": 8883,
      "passing": 8884,
      "funeral": 8885,
      "performances": 8886,
      "1957": 8887,
      "lasted": 8888,
      "##ograp": 8889,
      "civilian": 8890,
      "faculty": 8891,
      "dynamic": 8892,
      "killing": 8893,
      "##iii": 8894,
      "baseball": 8895,
      "missile": 8896,
      "voters": 8897,
      "column": 8898,
      "clearly": 8899,
      "nobel": 8900,
      "resource": 8901,
      "##bean": 8902,
      "geographic": 8903,
      "philosophers": 8904,
      "saxon": 8905,
      "rajasth": 8906,
      "alphabet": 8907,
      "abolished": 8908,
      "scheduled": 8909,
      "acknowled": 8910,
      "afghanistan": 8911,
      "wikipedia": 8912,
      "cbs": 8913,
      "pover": 8914,
      "pup": 8915,
      "rug": 8916,
      "tang": 8917,
      "##ao": 8918,
      "##iop": 8919,
      "##gb": 8920,
      "##hetic": 8921,
      "toxic": 8922,
      "##roph": 8923,
      "##eline": 8924,
      "uncon": 8925,
      "##unes": 8926,
      "priest": 8927,
      "sphere": 8928,
      "permit": 8929,
      "##enses": 8930,
      "cars": 8931,
      "monica": 8932,
      "fled": 8933,
      "discont": 8934,
      "organisation": 8935,
      "controls": 8936,
      "confirmed": 8937,
      "patients": 8938,
      "temp": 8939,
      "1952": 8940,
      "caliph": 8941,
      "palerm": 8942,
      "telec": 8943,
      "arrival": 8944,
      "readers": 8945,
      "enterpr": 8946,
      "concerning": 8947,
      "chapel": 8948,
      "younger": 8949,
      "alexandria": 8950,
      "teachings": 8951,
      "extraction": 8952,
      "message": 8953,
      "breeding": 8954,
      "alleged": 8955,
      "initiative": 8956,
      "metaphys": 8957,
      "denominations": 8958,
      "hierarch": 8959,
      "provincial": 8960,
      "bissau": 8961,
      "swaziland": 8962,
      "poverty": 8963,
      "cf": 8964,
      "lect": 8965,
      "lights": 8966,
      "mun": 8967,
      "oak": 8968,
      "rab": 8969,
      "sher": 8970,
      "wel": 8971,
      "##21": 8972,
      "##xi": 8973,
      "##rey": 8974,
      "neur": 8975,
      "##osy": 8976,
      "##osaur": 8977,
      "spaces": 8978,
      "worn": 8979,
      "compact": 8980,
      "evangel": 8981,
      "grass": 8982,
      "underground": 8983,
      "transist": 8984,
      "invade": 8985,
      "crew": 8986,
      "##ictions": 8987,
      "crimes": 8988,
      "technological": 8989,
      "statistics": 8990,
      "receives": 8991,
      "currency": 8992,
      "breaking": 8993,
      "buried": 8994,
      "1911": 8995,
      "competitions": 8996,
      "##max": 8997,
      "judg": 8998,
      "tribe": 8999,
      "participated": 9000,
      "convert": 9001,
      "pointed": 9002,
      "suffering": 9003,
      "magnetic": 9004,
      "boundary": 9005,
      "nominal": 9006,
      "reverse": 9007,
      "circumst": 9008,
      "bol": 9009,
      "cauc": 9010,
      "fi": 9011,
      "jan": 9012,
      "nerv": 9013,
      "tong": 9014,
      "wolf": 9015,
      "##lach": 9016,
      "##isp": 9017,
      "tourn": 9018,
      "##eced": 9019,
      "##ilation": 9020,
      "##ette": 9021,
      "stan": 9022,
      "##char": 9023,
      "unemp": 9024,
      "##aints": 9025,
      "##una": 9026,
      "usaf": 9027,
      "##aka": 9028,
      "resign": 9029,
      "commem": 9030,
      "prep": 9031,
      "infect": 9032,
      "##ologically": 9033,
      "metab": 9034,
      "query": 9035,
      "strip": 9036,
      "nationality": 9037,
      "persec": 9038,
      "landsc": 9039,
      "anteced": 9040,
      "1954": 9041,
      "##iﬁed": 9042,
      "check": 9043,
      "printing": 9044,
      "displayed": 9045,
      "fifa": 9046,
      "keeping": 9047,
      "aristocr": 9048,
      "accurate": 9049,
      "prisoners": 9050,
      "constituent": 9051,
      "samoa": 9052,
      "revolt": 9053,
      "scenes": 9054,
      "illegal": 9055,
      "caesar": 9056,
      "unemploy": 9057,
      "cort": 9058,
      "hip": 9059,
      "mask": 9060,
      "##inth": 9061,
      "##olas": 9062,
      "partially": 9063,
      "monument": 9064,
      "noise": 9065,
      "humanism": 9066,
      "arrested": 9067,
      "tourist": 9068,
      "##ylvan": 9069,
      "connecting": 9070,
      "steps": 9071,
      "nucle": 9072,
      "adolescent": 9073,
      "shares": 9074,
      "channels": 9075,
      "wrestler": 9076,
      "laboratory": 9077,
      "eyes": 9078,
      "##while": 9079,
      "hypothesis": 9080,
      "enforcement": 9081,
      "rhythm": 9082,
      "paintings": 9083,
      "caribbean": 9084,
      "palermo": 9085,
      "hud": 9086,
      "len": 9087,
      "none": 9088,
      "pip": 9089,
      "rated": 9090,
      "tab": 9091,
      "##teen": 9092,
      "##12": 9093,
      "inch": 9094,
      "tomb": 9095,
      "stead": 9096,
      "really": 9097,
      "comic": 9098,
      "warfare": 9099,
      "earn": 9100,
      "populated": 9101,
      "max": 9102,
      "attached": 9103,
      "charged": 9104,
      "boat": 9105,
      "streng": 9106,
      "detection": 9107,
      "prevented": 9108,
      "busiest": 9109,
      "institutes": 9110,
      "arrive": 9111,
      "explained": 9112,
      "##forward": 9113,
      "cheap": 9114,
      "objective": 9115,
      "campaigns": 9116,
      "panel": 9117,
      "gardens": 9118,
      "pollution": 9119,
      "apparent": 9120,
      "emergency": 9121,
      "hurric": 9122,
      "publishing": 9123,
      "cosm": 9124,
      "opponents": 9125,
      "bibl": 9126,
      "bottom": 9127,
      "chihuahua": 9128,
      "##ylvania": 9129,
      "bert": 9130,
      "eq": 9131,
      "eighth": 9132,
      "jay": 9133,
      "narr": 9134,
      "om": 9135,
      "py": 9136,
      "pom": 9137,
      "pel": 9138,
      "rig": 9139,
      "##icut": 9140,
      "tot": 9141,
      "stack": 9142,
      "stars": 9143,
      "chick": 9144,
      "##ifice": 9145,
      "complic": 9146,
      "reputation": 9147,
      "imposs": 9148,
      "explo": 9149,
      "speciﬁc": 9150,
      "supplies": 9151,
      "publicly": 9152,
      "retain": 9153,
      "##ropy": 9154,
      "jean": 9155,
      "drum": 9156,
      "guid": 9157,
      "owner": 9158,
      "encycl": 9159,
      "1947": 9160,
      "centered": 9161,
      "argent": 9162,
      "rocket": 9163,
      "indicated": 9164,
      "discussion": 9165,
      "elsewhere": 9166,
      "pronunciation": 9167,
      "decreased": 9168,
      "detailed": 9169,
      "suburban": 9170,
      "nouns": 9171,
      "experimental": 9172,
      "skills": 9173,
      "annexed": 9174,
      "hungary": 9175,
      "literally": 9176,
      "telecommunic": 9177,
      "gi": 9178,
      "jr": 9179,
      "lanc": 9180,
      "nich": 9181,
      "option": 9182,
      "pic": 9183,
      "tiss": 9184,
      "##zen": 9185,
      "##atical": 9186,
      "##ora": 9187,
      "##aris": 9188,
      "##urance": 9189,
      "##etically": 9190,
      "##odes": 9191,
      "##unk": 9192,
      "arthur": 9193,
      "paras": 9194,
      "leban": 9195,
      "recip": 9196,
      "##peg": 9197,
      "desire": 9198,
      "subt": 9199,
      "supplement": 9200,
      "geomet": 9201,
      "occurring": 9202,
      "civilians": 9203,
      "1910": 9204,
      "involve": 9205,
      "##riptions": 9206,
      "williams": 9207,
      "situ": 9208,
      "antennas": 9209,
      "commissioned": 9210,
      "admir": 9211,
      "vowels": 9212,
      "caval": 9213,
      "dictionary": 9214,
      "habitat": 9215,
      "culmin": 9216,
      "enabled": 9217,
      "69": 9218,
      "96": 9219,
      "bic": 9220,
      "fame": 9221,
      "icon": 9222,
      "lama": 9223,
      "nbc": 9224,
      "##lated": 9225,
      "##hal": 9226,
      "##25": 9227,
      "##acular": 9228,
      "stere": 9229,
      "##igm": 9230,
      "beach": 9231,
      "##opes": 9232,
      "notice": 9233,
      "cancer": 9234,
      "alloys": 9235,
      "franch": 9236,
      "scout": 9237,
      "thereby": 9238,
      "calling": 9239,
      "monet": 9240,
      "##grade": 9241,
      "brook": 9242,
      "elab": 9243,
      "1942": 9244,
      "meanings": 9245,
      "1951": 9246,
      "predecess": 9247,
      "massac": 9248,
      "arabs": 9249,
      "morning": 9250,
      "dielectric": 9251,
      "wrong": 9252,
      "connecticut": 9253,
      "regulation": 9254,
      "weekly": 9255,
      "stopped": 9256,
      "lux": 9257,
      "##thetic": 9258,
      "attracted": 9259,
      "honour": 9260,
      "continuing": 9261,
      "coding": 9262,
      "ambigu": 9263,
      "encourage": 9264,
      "glaciers": 9265,
      "interview": 9266,
      "slowly": 9267,
      "penns": 9268,
      "experiments": 9269,
      "georgia": 9270,
      "adoption": 9271,
      "conscious": 9272,
      "deposits": 9273,
      "prayer": 9274,
      "broadcasts": 9275,
      "adapted": 9276,
      "undergraduate": 9277,
      "consecutive": 9278,
      "twelve": 9279,
      "taylor": 9280,
      "76": 9281,
      "mouth": 9282,
      "##11": 9283,
      "##esters": 9284,
      "##omans": 9285,
      "conﬁ": 9286,
      "confer": 9287,
      "alleg": 9288,
      "##unction": 9289,
      "##ibilities": 9290,
      "compens": 9291,
      "shorter": 9292,
      "##irect": 9293,
      "scand": 9294,
      "offensive": 9295,
      "acres": 9296,
      "deter": 9297,
      "modeling": 9298,
      "hyper": 9299,
      "associations": 9300,
      "1946": 9301,
      "solo": 9302,
      "burm": 9303,
      "facilit": 9304,
      "physi": 9305,
      "specialized": 9306,
      "missions": 9307,
      "petro": 9308,
      "utter": 9309,
      "maintaining": 9310,
      "exclusively": 9311,
      "cavalry": 9312,
      "pennsylvania": 9313,
      "bath": 9314,
      "beng": 9315,
      "furn": 9316,
      "faster": 9317,
      "gil": 9318,
      "hind": 9319,
      "sap": 9320,
      "uef": 9321,
      "ﬁn": 9322,
      "##rav": 9323,
      "inver": 9324,
      "##ington": 9325,
      "##urated": 9326,
      "sugar": 9327,
      "##umb": 9328,
      "prestig": 9329,
      "lev": 9330,
      "incl": 9331,
      "resemb": 9332,
      "perfect": 9333,
      "centres": 9334,
      "syll": 9335,
      "feud": 9336,
      "subsc": 9337,
      "metres": 9338,
      "emigr": 9339,
      "strik": 9340,
      "anything": 9341,
      "productions": 9342,
      "curric": 9343,
      "guitar": 9344,
      "encl": 9345,
      "lob": 9346,
      "manufactured": 9347,
      "waters": 9348,
      "distinctive": 9349,
      "conventional": 9350,
      "##rupted": 9351,
      "segments": 9352,
      "eliminated": 9353,
      "ceremon": 9354,
      "prosper": 9355,
      "exactly": 9356,
      "interactions": 9357,
      "traits": 9358,
      "sacrifice": 9359,
      "vertical": 9360,
      "infringement": 9361,
      "anglican": 9362,
      "burmese": 9363,
      "97": 9364,
      "bund": 9365,
      "cited": 9366,
      "sad": 9367,
      "##17": 9368,
      "##wid": 9369,
      "##eda": 9370,
      "##oul": 9371,
      "revel": 9372,
      "neo": 9373,
      "ends": 9374,
      "print": 9375,
      "spin": 9376,
      "marry": 9377,
      "phone": 9378,
      "earned": 9379,
      "grain": 9380,
      "subd": 9381,
      "outl": 9382,
      "boot": 9383,
      "##ancing": 9384,
      "nationalist": 9385,
      "##ockey": 9386,
      "filed": 9387,
      "treas": 9388,
      "##olving": 9389,
      "educated": 9390,
      "farming": 9391,
      "federalism": 9392,
      "studying": 9393,
      "territorial": 9394,
      "ready": 9395,
      "agreements": 9396,
      "literacy": 9397,
      "squad": 9398,
      "millions": 9399,
      "collected": 9400,
      "horiz": 9401,
      "affiliated": 9402,
      "pronounced": 9403,
      "vehicle": 9404,
      "mortg": 9405,
      "partnership": 9406,
      "bowl": 9407,
      "balkans": 9408,
      "stimul": 9409,
      "protocol": 9410,
      "millennium": 9411,
      "gay": 9412,
      "mason": 9413,
      "oh": 9414,
      "vel": 9415,
      "##then": 9416,
      "##uct": 9417,
      "##onds": 9418,
      "##ali": 9419,
      "##itance": 9420,
      "##ingham": 9421,
      "##ethe": 9422,
      "##adic": 9423,
      "##ager": 9424,
      "trains": 9425,
      "registered": 9426,
      "desk": 9427,
      "overth": 9428,
      "##ailed": 9429,
      "metals": 9430,
      "mining": 9431,
      "caf": 9432,
      "bases": 9433,
      "basil": 9434,
      "immune": 9435,
      "1937": 9436,
      "papal": 9437,
      "duties": 9438,
      "contribute": 9439,
      "rebels": 9440,
      "protestants": 9441,
      "montini": 9442,
      "articles": 9443,
      "citizenship": 9444,
[...]
